{
  "version": "1.0",
  "truncation": null,
  "padding": null,
  "added_tokens": [
    {
      "id": 0,
      "content": "<cls>",
      "single_word": false,
      "lstrip": false,
      "rstrip": false,
      "normalized": false,
      "special": true
    },
    {
      "id": 1,
      "content": "<sep>",
      "single_word": false,
      "lstrip": false,
      "rstrip": false,
      "normalized": false,
      "special": true
    },
    {
      "id": 2,
      "content": "<unk>",
      "single_word": false,
      "lstrip": false,
      "rstrip": false,
      "normalized": false,
      "special": true
    },
    {
      "id": 3,
      "content": "<pad>",
      "single_word": false,
      "lstrip": false,
      "rstrip": false,
      "normalized": false,
      "special": true
    },
    {
      "id": 4,
      "content": "<mask>",
      "single_word": false,
      "lstrip": false,
      "rstrip": false,
      "normalized": false,
      "special": true
    },
    {
      "id": 5,
      "content": "<s>",
      "single_word": false,
      "lstrip": false,
      "rstrip": false,
      "normalized": false,
      "special": true
    },
    {
      "id": 6,
      "content": "</s>",
      "single_word": false,
      "lstrip": false,
      "rstrip": false,
      "normalized": false,
      "special": true
    }
  ],
  "normalizer": {
    "type": "Sequence",
    "normalizers": [
      {
        "type": "Replace",
        "pattern": {
          "String": "``"
        },
        "content": "\""
      },
      {
        "type": "Replace",
        "pattern": {
          "String": "''"
        },
        "content": "\""
      },
      {
        "type": "NFD"
      },
      {
        "type": "StripAccents"
      },
      {
        "type": "Replace",
        "pattern": {
          "Regex": " {2,}"
        },
        "content": " "
      }
    ]
  },
  "pre_tokenizer": {
    "type": "Metaspace",
    "replacement": "▁",
    "prepend_scheme": "always",
    "split": true
  },
  "post_processor": {
    "type": "TemplateProcessing",
    "single": [
      {
        "Sequence": {
          "id": "A",
          "type_id": 0
        }
      },
      {
        "SpecialToken": {
          "id": "<sep>",
          "type_id": 0
        }
      },
      {
        "SpecialToken": {
          "id": "<cls>",
          "type_id": 2
        }
      }
    ],
    "pair": [
      {
        "Sequence": {
          "id": "A",
          "type_id": 0
        }
      },
      {
        "SpecialToken": {
          "id": "<sep>",
          "type_id": 0
        }
      },
      {
        "Sequence": {
          "id": "B",
          "type_id": 1
        }
      },
      {
        "SpecialToken": {
          "id": "<sep>",
          "type_id": 1
        }
      },
      {
        "SpecialToken": {
          "id": "<cls>",
          "type_id": 2
        }
      }
    ],
    "special_tokens": {
      "<cls>": {
        "id": "<cls>",
        "ids": [
          0
        ],
        "tokens": [
          "<cls>"
        ]
      },
      "<sep>": {
        "id": "<sep>",
        "ids": [
          1
        ],
        "tokens": [
          "<sep>"
        ]
      }
    }
  },
  "decoder": {
    "type": "Metaspace",
    "replacement": "▁",
    "prepend_scheme": "always",
    "split": true
  },
  "model": {
    "type": "Unigram",
    "unk_id": 2,
    "vocab": [
      [
        "<cls>",
        0.0
      ],
      [
        "<sep>",
        0.0
      ],
      [
        "<unk>",
        0.0
      ],
      [
        "<pad>",
        0.0
      ],
      [
        "<mask>",
        0.0
      ],
      [
        "<s>",
        0.0
      ],
      [
        "</s>",
        0.0
      ],
      [
        "▁",
        -1.9472436192429416
      ],
      [
        "▁the",
        -3.2751854159332545
      ],
      [
        "s",
        -3.3059138610718986
      ],
      [
        ",",
        -3.4136495014155006
      ],
      [
        ".",
        -3.6803948922905256
      ],
      [
        "▁of",
        -4.00299739179788
      ],
      [
        "▁and",
        -4.129615966153709
      ],
      [
        "ed",
        -4.162886993263413
      ],
      [
        "a",
        -4.17472365165637
      ],
      [
        "@",
        -4.2248197011956865
      ],
      [
        "▁to",
        -4.333797011804572
      ],
      [
        "▁in",
        -4.343896856760882
      ],
      [
        "d",
        -4.360392827960263
      ],
      [
        "y",
        -4.574711931236541
      ],
      [
        "ing",
        -4.599942296686937
      ],
      [
        "=",
        -4.657973028024012
      ],
      [
        "\"",
        -4.701554339802634
      ],
      [
        "\n",
        -4.876439426585073
      ],
      [
        "▁was",
        -4.9961051414188375
      ],
      [
        "on",
        -5.061497116390367
      ],
      [
        "▁The",
        -5.1331248662452875
      ],
      [
        "-",
        -5.192883407432204
      ],
      [
        "ly",
        -5.268434320217651
      ],
      [
        "e",
        -5.307478503845466
      ],
      [
        "▁be",
        -5.388995377198112
      ],
      [
        "▁that",
        -5.395896221436729
      ],
      [
        "▁with",
        -5.411902208816944
      ],
      [
        "▁as",
        -5.415262319537593
      ],
      [
        "▁'s",
        -5.416638781867146
      ],
      [
        "▁for",
        -5.423718957214128
      ],
      [
        "t",
        -5.483261579431209
      ],
      [
        "▁by",
        -5.554134977929262
      ],
      [
        ")",
        -5.5595181785462735
      ],
      [
        "(",
        -5.560518387005825
      ],
      [
        "▁is",
        -5.60605806391912
      ],
      [
        "▁from",
        -5.854013215113255
      ],
      [
        "▁his",
        -5.913335633152512
      ],
      [
        "▁at",
        -5.952236949751271
      ],
      [
        "n",
        -6.04458768092908
      ],
      [
        "▁were",
        -6.051871667638899
      ],
      [
        "▁it",
        -6.080031318637049
      ],
      [
        "▁an",
        -6.224217858094859
      ],
      [
        "▁he",
        -6.244981324167382
      ],
      [
        "▁In",
        -6.25124259710876
      ],
      [
        "▁had",
        -6.304443560537253
      ],
      [
        "▁which",
        -6.331730018313323
      ],
      [
        "en",
        -6.4268429980400335
      ],
      [
        "l",
        -6.481307123906616
      ],
      [
        "▁are",
        -6.489444212657986
      ],
      [
        "o",
        -6.504722221024538
      ],
      [
        "▁'",
        -6.589872064905359
      ],
      [
        "ies",
        -6.595888788502849
      ],
      [
        "3",
        -6.602342544696583
      ],
      [
        ";",
        -6.604052282242414
      ],
      [
        "▁200",
        -6.612288918751677
      ],
      [
        "▁their",
        -6.627904501032017
      ],
      [
        "er",
        -6.632122626672791
      ],
      [
        "▁not",
        -6.636056527181024
      ],
      [
        "5",
        -6.641271896917166
      ],
      [
        "▁but",
        -6.643226329598063
      ],
      [
        "▁first",
        -6.660299923293703
      ],
      [
        "▁A",
        -6.673354824926035
      ],
      [
        "–",
        -6.675186835283547
      ],
      [
        ":",
        -6.708269061161193
      ],
      [
        "4",
        -6.715066654822456
      ],
      [
        "also",
        -6.724027173106359
      ],
      [
        "al",
        -6.726993300664933
      ],
      [
        "▁her",
        -6.727600033366743
      ],
      [
        "▁or",
        -6.766242659540758
      ],
      [
        "i",
        -6.780165097198761
      ],
      [
        "▁have",
        -6.80705586756423
      ],
      [
        "▁its",
        -6.812339066889461
      ],
      [
        "6",
        -6.8225937500999745
      ],
      [
        "▁one",
        -6.831368218265039
      ],
      [
        "▁has",
        -6.8376694069188275
      ],
      [
        "h",
        -6.8591346660628645
      ],
      [
        "▁two",
        -6.868989243939531
      ],
      [
        "▁who",
        -6.872867880038225
      ],
      [
        "▁He",
        -6.879382468040578
      ],
      [
        "r",
        -6.881591469320403
      ],
      [
        "9",
        -6.917645758419727
      ],
      [
        "▁this",
        -6.919697210857789
      ],
      [
        "8",
        -6.929138577948361
      ],
      [
        "▁year",
        -6.967057850750904
      ],
      [
        "2",
        -6.969840513650305
      ],
      [
        "7",
        -6.983088787110987
      ],
      [
        "th",
        -6.992220913572801
      ],
      [
        "1",
        -6.9980011183367035
      ],
      [
        "in",
        -6.999876900513893
      ],
      [
        "▁I",
        -7.001460317788762
      ],
      [
        "▁other",
        -7.017912601660778
      ],
      [
        "▁after",
        -7.062651875487956
      ],
      [
        "▁It",
        -7.067216810175574
      ],
      [
        "▁time",
        -7.107005561483061
      ],
      [
        "▁into",
        -7.154864214404823
      ],
      [
        "m",
        -7.170385283349282
      ],
      [
        "▁use",
        -7.183106392007019
      ],
      [
        "▁would",
        -7.193925275161382
      ],
      [
        "▁201",
        -7.210435816189918
      ],
      [
        "▁more",
        -7.221794410380164
      ],
      [
        "▁him",
        -7.230175944364912
      ],
      [
        "▁over",
        -7.258849695336623
      ],
      [
        "ember",
        -7.2606400658470855
      ],
      [
        "us",
        -7.261006695269297
      ],
      [
        "▁all",
        -7.292491668447675
      ],
      [
        "▁1",
        -7.302031389469677
      ],
      [
        "▁when",
        -7.324507381476078
      ],
      [
        "▁up",
        -7.337502837707837
      ],
      [
        "▁she",
        -7.339860670190245
      ],
      [
        "▁game",
        -7.348945278609674
      ],
      [
        "during",
        -7.362175090773102
      ],
      [
        "▁most",
        -7.381991914682122
      ],
      [
        "ary",
        -7.397240410760449
      ],
      [
        "▁B",
        -7.407630107621141
      ],
      [
        "ce",
        -7.416093471118399
      ],
      [
        "tween",
        -7.417442248346799
      ],
      [
        "about",
        -7.424890813365216
      ],
      [
        "only",
        -7.431785242059595
      ],
      [
        "land",
        -7.4369197878347935
      ],
      [
        "▁again",
        -7.4478051616259275
      ],
      [
        "▁three",
        -7.4528684724638925
      ],
      [
        "▁On",
        -7.461296054410712
      ],
      [
        "▁season",
        -7.46206238258092
      ],
      [
        "▁2",
        -7.462292060545599
      ],
      [
        "an",
        -7.472441004502786
      ],
      [
        "▁than",
        -7.483527168891925
      ],
      [
        "ever",
        -7.494019998929394
      ],
      [
        "▁through",
        -7.5019086734630624
      ],
      [
        "▁part",
        -7.507833087173875
      ],
      [
        "▁C",
        -7.508957551084456
      ],
      [
        "ish",
        -7.510440893606026
      ],
      [
        "▁later",
        -7.522438663110019
      ],
      [
        "▁while",
        -7.53711159496762
      ],
      [
        "▁out",
        -7.540271449140616
      ],
      [
        "made",
        -7.5435993198630475
      ],
      [
        "▁them",
        -7.5436308013024975
      ],
      [
        "▁new",
        -7.551297698935311
      ],
      [
        "▁F",
        -7.554201199348227
      ],
      [
        "▁play",
        -7.556430143263757
      ],
      [
        "▁199",
        -7.566448593378914
      ],
      [
        "▁some",
        -7.58381059114565
      ],
      [
        "▁where",
        -7.584696026810763
      ],
      [
        "able",
        -7.592860594386101
      ],
      [
        "w",
        -7.61210362585819
      ],
      [
        "c",
        -7.613387503501998
      ],
      [
        "such",
        -7.616220149791472
      ],
      [
        "es",
        -7.61769515667674
      ],
      [
        "ity",
        -7.618193219036946
      ],
      [
        "▁second",
        -7.620190257391125
      ],
      [
        "▁film",
        -7.630975161756681
      ],
      [
        "▁number",
        -7.6324925519609765
      ],
      [
        "▁name",
        -7.638330020629953
      ],
      [
        "▁song",
        -7.638669016709212
      ],
      [
        "▁S",
        -7.638695894083948
      ],
      [
        "▁New",
        -7.640763042212409
      ],
      [
        "▁release",
        -7.645388129085195
      ],
      [
        "▁follow",
        -7.649028483886141
      ],
      [
        "▁This",
        -7.652743433082107
      ],
      [
        "▁under",
        -7.653805425277467
      ],
      [
        "and",
        -7.657273366779821
      ],
      [
        "came",
        -7.663008189010356
      ],
      [
        "▁record",
        -7.6675554805737685
      ],
      [
        "▁album",
        -7.668680190416033
      ],
      [
        "▁000",
        -7.6728166707652665
      ],
      [
        "out",
        -7.675273400085431
      ],
      [
        "▁before",
        -7.67680736608417
      ],
      [
        "▁work",
        -7.6852233812221655
      ],
      [
        "u",
        -7.702976478585551
      ],
      [
        "though",
        -7.706505003157043
      ],
      [
        "0",
        -7.709060148996657
      ],
      [
        "gan",
        -7.715246103862581
      ],
      [
        "▁there",
        -7.721584957829027
      ],
      [
        "▁end",
        -7.729794800923931
      ],
      [
        "▁can",
        -7.74163990463527
      ],
      [
        "▁high",
        -7.751520322307258
      ],
      [
        "▁being",
        -7.760257200469567
      ],
      [
        "▁series",
        -7.7621915870877825
      ],
      [
        "▁State",
        -7.768710973711949
      ],
      [
        "▁M",
        -7.771520459533544
      ],
      [
        "▁includ",
        -7.782081315882996
      ],
      [
        "▁both",
        -7.785174403886115
      ],
      [
        "▁no",
        -7.789847951432028
      ],
      [
        "▁T",
        -7.791477661821739
      ],
      [
        "f",
        -7.796235766486366
      ],
      [
        "▁area",
        -7.808246890170222
      ],
      [
        "▁show",
        -7.809701528408945
      ],
      [
        "/",
        -7.813207958893588
      ],
      [
        "cause",
        -7.813673904034679
      ],
      [
        "▁form",
        -7.813740244312963
      ],
      [
        "▁centur",
        -7.81479962174232
      ],
      [
        "▁episode",
        -7.822799008986218
      ],
      [
        "▁known",
        -7.824031197759872
      ],
      [
        "—",
        -7.83000835315019
      ],
      [
        "▁Unit",
        -7.83010343107589
      ],
      [
        "is",
        -7.831092709821333
      ],
      [
        "round",
        -7.832776126041012
      ],
      [
        "▁well",
        -7.842824403281274
      ],
      [
        "▁like",
        -7.847165630454743
      ],
      [
        "▁many",
        -7.85985799888436
      ],
      [
        "▁found",
        -7.86715235552711
      ],
      [
        "man",
        -7.878981156184307
      ],
      [
        "ic",
        -7.8807083827718944
      ],
      [
        "▁state",
        -7.881262003918236
      ],
      [
        "▁long",
        -7.88281498981169
      ],
      [
        "▁de",
        -7.889158001912435
      ],
      [
        "▁R",
        -7.89082142753383
      ],
      [
        "▁four",
        -7.907565055329868
      ],
      [
        "▁After",
        -7.9131908986643005
      ],
      [
        "▁American",
        -7.9221762080472296
      ],
      [
        "est",
        -7.934100271355205
      ],
      [
        "▁severa",
        -7.9429204487347524
      ],
      [
        "▁team",
        -7.946782471066289
      ],
      [
        "▁near",
        -7.948952806287982
      ],
      [
        "▁large",
        -7.963637744354653
      ],
      [
        "▁force",
        -7.965503574980167
      ],
      [
        "▁remain",
        -7.966369265356086
      ],
      [
        "▁un",
        -7.970375372762909
      ],
      [
        "▁early",
        -7.981480415559932
      ],
      [
        "▁could",
        -7.982212792177633
      ],
      [
        "▁final",
        -7.991591487974837
      ],
      [
        "▁did",
        -7.993912194005686
      ],
      [
        "▁base",
        -7.994986827650443
      ],
      [
        "▁so",
        -7.996206894258201
      ],
      [
        "self",
        -8.001192919310853
      ],
      [
        "▁along",
        -8.009003840885168
      ],
      [
        "le",
        -8.011695086055315
      ],
      [
        "▁may",
        -8.018566844429749
      ],
      [
        "▁Brit",
        -8.021576311790442
      ],
      [
        "▁As",
        -8.027954518768485
      ],
      [
        "▁place",
        -8.03203745130138
      ],
      [
        "▁character",
        -8.03304818309279
      ],
      [
        "▁She",
        -8.036177241603745
      ],
      [
        "▁10",
        -8.053091682228555
      ],
      [
        "▁unti",
        -8.056196164635427
      ],
      [
        "▁same",
        -8.072653740295872
      ],
      [
        "▁original",
        -8.074844705119567
      ],
      [
        "▁back",
        -8.07666024546127
      ],
      [
        "▁city",
        -8.077119659290961
      ],
      [
        "▁million",
        -8.086092442259027
      ],
      [
        "each",
        -8.086868631399078
      ],
      [
        "▁people",
        -8.08776594886827
      ],
      [
        "▁return",
        -8.089190922884152
      ],
      [
        "▁day",
        -8.09504374216607
      ],
      [
        "um",
        -8.095360560118841
      ],
      [
        "▁km",
        -8.096632521922078
      ],
      [
        "▁player",
        -8.099903852946422
      ],
      [
        "▁May",
        -8.104997156107716
      ],
      [
        "▁194",
        -8.105273118945679
      ],
      [
        "▁main",
        -8.105768276402511
      ],
      [
        "▁War",
        -8.113913027966504
      ],
      [
        "▁how",
        -8.118804815524694
      ],
      [
        "▁South",
        -8.121312396967713
      ],
      [
        "▁John",
        -8.123865299955192
      ],
      [
        "▁North",
        -8.12559605512979
      ],
      [
        "▁At",
        -8.126920342628065
      ],
      [
        "▁call",
        -8.127507652374963
      ],
      [
        "▁August",
        -8.128964765121367
      ],
      [
        "▁down",
        -8.138164040453908
      ],
      [
        "ment",
        -8.145326834075643
      ],
      [
        "▁sai",
        -8.145512162713253
      ],
      [
        "ry",
        -8.146660798011396
      ],
      [
        "▁start",
        -8.14924938969206
      ],
      [
        "▁support",
        -8.15229702041498
      ],
      [
        "▁198",
        -8.154725001655596
      ],
      [
        "▁small",
        -8.165192761171532
      ],
      [
        "▁any",
        -8.167215228350406
      ],
      [
        "%",
        -8.171981750065553
      ],
      [
        "ber",
        -8.17728904105985
      ],
      [
        "▁Sept",
        -8.17893300293294
      ],
      [
        "▁E",
        -8.179000002236101
      ],
      [
        "▁group",
        -8.181061189131393
      ],
      [
        "▁off",
        -8.182756459957751
      ],
      [
        "▁life",
        -8.187236208693111
      ],
      [
        "▁German",
        -8.190376640150957
      ],
      [
        "▁ship",
        -8.19080498273819
      ],
      [
        "these",
        -8.195087795656857
      ],
      [
        "▁lead",
        -8.19596897036256
      ],
      [
        "▁196",
        -8.197330156272626
      ],
      [
        "▁World",
        -8.197411351840099
      ],
      [
        "ten",
        -8.201531950543348
      ],
      [
        "▁20",
        -8.203384990715737
      ],
      [
        "▁five",
        -8.212585940109374
      ],
      [
        "▁single",
        -8.213842213801897
      ],
      [
        "▁describe",
        -8.216914344063596
      ],
      [
        "ation",
        -8.219554938613419
      ],
      [
        "▁result",
        -8.21966590894328
      ],
      [
        "ok",
        -8.221177792989378
      ],
      [
        "▁appear",
        -8.224370443997877
      ],
      [
        "▁O",
        -8.229027150843208
      ],
      [
        "▁P",
        -8.236973858214679
      ],
      [
        "▁197",
        -8.237684121427622
      ],
      [
        "▁move",
        -8.238536384457047
      ],
      [
        "▁attack",
        -8.241888445644626
      ],
      [
        "▁U",
        -8.245927960610004
      ],
      [
        "▁music",
        -8.247557733401308
      ],
      [
        "▁Dur",
        -8.250730446141734
      ],
      [
        "▁June",
        -8.255164183914133
      ],
      [
        "▁How",
        -8.257865802905686
      ],
      [
        "▁point",
        -8.259456972467708
      ],
      [
        "▁own",
        -8.260333501185961
      ],
      [
        "▁Al",
        -8.260414959541952
      ],
      [
        "▁order",
        -8.272267905449624
      ],
      [
        "▁since",
        -8.278375093569842
      ],
      [
        "▁what",
        -8.278580491963629
      ],
      [
        "or",
        -8.2813379726291
      ],
      [
        "▁consider",
        -8.282126287188865
      ],
      [
        "k",
        -8.283274168927882
      ],
      [
        "ion",
        -8.28336950683261
      ],
      [
        "▁D",
        -8.28543615506782
      ],
      [
        "▁title",
        -8.288848594652489
      ],
      [
        "▁feature",
        -8.291416016311333
      ],
      [
        "▁famil",
        -8.30493448102889
      ],
      [
        "g",
        -8.30849422794412
      ],
      [
        "▁late",
        -8.309847133345155
      ],
      [
        "if",
        -8.311129258231695
      ],
      [
        "▁will",
        -8.311345103491021
      ],
      [
        "▁They",
        -8.314111420526334
      ],
      [
        "▁al",
        -8.314982115004561
      ],
      [
        "▁191",
        -8.32064389794121
      ],
      [
        "▁Octo",
        -8.322453225150543
      ],
      [
        "▁last",
        -8.322635739379166
      ],
      [
        "▁receive",
        -8.323637854188666
      ],
      [
        "▁system",
        -8.32640378938261
      ],
      [
        "▁continue",
        -8.326741217441969
      ],
      [
        "$",
        -8.329070661540095
      ],
      [
        "▁week",
        -8.332262107688699
      ],
      [
        "▁set",
        -8.332544432420562
      ],
      [
        "rote",
        -8.333246904953244
      ],
      [
        "▁Man",
        -8.341837331337443
      ],
      [
        "▁home",
        -8.34247927756858
      ],
      [
        "▁line",
        -8.342970758806333
      ],
      [
        "▁N",
        -8.343785791343098
      ],
      [
        "▁Ap",
        -8.344268002390821
      ],
      [
        "]",
        -8.34920556692552
      ],
      [
        "[",
        -8.34920556692552
      ],
      [
        "ril",
        -8.351065818076574
      ],
      [
        "▁take",
        -8.35637570652119
      ],
      [
        "▁world",
        -8.356691291611753
      ],
      [
        "▁role",
        -8.357407904531954
      ],
      [
        "▁now",
        -8.359677242543917
      ],
      [
        "▁muc",
        -8.363904939975097
      ],
      [
        "▁won",
        -8.366069158524473
      ],
      [
        "▁15",
        -8.370947154568139
      ],
      [
        "▁child",
        -8.374788468106487
      ],
      [
        "▁war",
        -8.376683334325989
      ],
      [
        "▁due",
        -8.377020161168165
      ],
      [
        "▁specie",
        -8.379138933373987
      ],
      [
        "▁...",
        -8.385299903440432
      ],
      [
        "▁complete",
        -8.388718489199025
      ],
      [
        "ther",
        -8.390988584160418
      ],
      [
        "age",
        -8.392561959871427
      ],
      [
        "▁Jul",
        -8.392916138000825
      ],
      [
        "very",
        -8.39381867157067
      ],
      [
        "▁death",
        -8.395242965167744
      ],
      [
        "▁allow",
        -8.395881399116032
      ],
      [
        "▁Engl",
        -8.397348739479478
      ],
      [
        "▁direct",
        -8.403282079813906
      ],
      [
        "▁Janu",
        -8.406564007801826
      ],
      [
        "▁195",
        -8.408432802806818
      ],
      [
        "▁York",
        -8.409613184341662
      ],
      [
        "▁great",
        -8.411758440799149
      ],
      [
        "▁storm",
        -8.412336026604201
      ],
      [
        "▁Nov",
        -8.412369131595687
      ],
      [
        "▁include",
        -8.41254206147849
      ],
      [
        "▁left",
        -8.415062495455665
      ],
      [
        "▁short",
        -8.417563328409177
      ],
      [
        "▁government",
        -8.418886974695114
      ],
      [
        "ese",
        -8.419335643756726
      ],
      [
        "▁video",
        -8.423782988163891
      ],
      [
        "▁position",
        -8.428813240988962
      ],
      [
        "▁12",
        -8.428833979434144
      ],
      [
        "it",
        -8.430965586365144
      ],
      [
        "▁March",
        -8.431359820363383
      ],
      [
        "▁30",
        -8.431700435589857
      ],
      [
        "▁attempt",
        -8.432587161971579
      ],
      [
        "▁Dec",
        -8.4348786641904
      ],
      [
        "▁re",
        -8.44114547097971
      ],
      [
        "▁third",
        -8.44295808580226
      ],
      [
        "▁general",
        -8.446234041643038
      ],
      [
        "▁included",
        -8.446926687867727
      ],
      [
        "▁six",
        -8.454395225589188
      ],
      [
        "▁previous",
        -8.45645181174497
      ],
      [
        "▁become",
        -8.457749058012226
      ],
      [
        "▁north",
        -8.457942613031827
      ],
      [
        "▁open",
        -8.461519101942791
      ],
      [
        "▁design",
        -8.464900833656348
      ],
      [
        "by",
        -8.47143406627175
      ],
      [
        "▁do",
        -8.471657813633255
      ],
      [
        "▁II",
        -8.472113795438368
      ],
      [
        "▁school",
        -8.473164166039147
      ],
      [
        "ren",
        -8.478951395478227
      ],
      [
        "▁book",
        -8.480039084356672
      ],
      [
        "▁make",
        -8.480624223114472
      ],
      [
        "▁south",
        -8.486611777907957
      ],
      [
        "▁buil",
        -8.488836323787357
      ],
      [
        "▁River",
        -8.491838315694178
      ],
      [
        "▁His",
        -8.494870099158566
      ],
      [
        "▁perform",
        -8.494986130742396
      ],
      [
        "▁develop",
        -8.49699237776217
      ],
      [
        "▁just",
        -8.501165106543445
      ],
      [
        "▁water",
        -8.503412378809593
      ],
      [
        "▁An",
        -8.504574386879579
      ],
      [
        "▁25",
        -8.504929765954929
      ],
      [
        "▁major",
        -8.507713218311807
      ],
      [
        "▁16",
        -8.513175390099029
      ],
      [
        "▁change",
        -8.513865852808781
      ],
      [
        "▁When",
        -8.514017457642503
      ],
      [
        "▁month",
        -8.514920549465188
      ],
      [
        "▁best",
        -8.51586514391867
      ],
      [
        "▁reach",
        -8.517447172172556
      ],
      [
        "▁version",
        -8.519371738492465
      ],
      [
        "x",
        -8.520457327844733
      ],
      [
        "▁US",
        -8.525780161479943
      ],
      [
        "▁period",
        -8.526283320471713
      ],
      [
        "▁even",
        -8.527995120448153
      ],
      [
        "z",
        -8.53148897033034
      ],
      [
        "▁There",
        -8.532801380537048
      ],
      [
        "▁2010",
        -8.53334878820155
      ],
      [
        "▁National",
        -8.536854601942643
      ],
      [
        "▁men",
        -8.549738754070852
      ],
      [
        "▁local",
        -8.550232456312727
      ],
      [
        "▁club",
        -8.554708976094496
      ],
      [
        "▁14",
        -8.563152711619992
      ],
      [
        "▁games",
        -8.563866689526424
      ],
      [
        "b",
        -8.56490777160954
      ],
      [
        "▁public",
        -8.56700371133716
      ],
      [
        "▁way",
        -8.567598806692647
      ],
      [
        "▁Cit",
        -8.568636444075786
      ],
      [
        "▁still",
        -8.572776886356912
      ],
      [
        "▁close",
        -8.57452744457325
      ],
      [
        "▁13",
        -8.574551773666284
      ],
      [
        "▁top",
        -8.574784731692638
      ],
      [
        "▁All",
        -8.577768004301339
      ],
      [
        "▁career",
        -8.57862142869271
      ],
      [
        "▁common",
        -8.581717789671197
      ],
      [
        "▁By",
        -8.584100230345165
      ],
      [
        "ive",
        -8.58707633922582
      ],
      [
        "▁fire",
        -8.58723733744289
      ],
      [
        "▁damage",
        -8.593753617095214
      ],
      [
        "▁site",
        -8.59428694891357
      ],
      [
        "▁present",
        -8.595152149847308
      ],
      [
        "▁Be",
        -8.595424770316505
      ],
      [
        "ness",
        -8.596692551202402
      ],
      [
        "ton",
        -8.598835133758463
      ],
      [
        "▁100",
        -8.600797492676943
      ],
      [
        "▁list",
        -8.606552494736734
      ],
      [
        "▁few",
        -8.608498153612256
      ],
      [
        "company",
        -8.609463246356862
      ],
      [
        "next",
        -8.611232144320189
      ],
      [
        "▁side",
        -8.615649392277723
      ],
      [
        "▁help",
        -8.61861846729278
      ],
      [
        "▁histor",
        -8.618659394244101
      ],
      [
        "▁193",
        -8.619474792134223
      ],
      [
        "▁power",
        -8.61954921365657
      ],
      [
        "▁often",
        -8.620267252978532
      ],
      [
        "▁English",
        -8.620761483018494
      ],
      [
        "▁arm",
        -8.62194605445139
      ],
      [
        "held",
        -8.622204027493929
      ],
      [
        "▁French",
        -8.623642429063114
      ],
      [
        "▁One",
        -8.625731180968607
      ],
      [
        "▁building",
        -8.6276368937618
      ],
      [
        "▁performance",
        -8.6308854422378
      ],
      [
        "▁produce",
        -8.634011981154565
      ],
      [
        "▁For",
        -8.63823960579067
      ],
      [
        "▁led",
        -8.64024870833402
      ],
      [
        "▁K",
        -8.647004991181014
      ],
      [
        "▁right",
        -8.647235420986467
      ],
      [
        "▁turn",
        -8.64815205402666
      ],
      [
        "▁writ",
        -8.651514540766465
      ],
      [
        "▁you",
        -8.654401142858708
      ],
      [
        "▁issue",
        -8.654678279006216
      ],
      [
        "▁level",
        -8.656293365307684
      ],
      [
        "▁provide",
        -8.658115143016332
      ],
      [
        "▁With",
        -8.65851981335907
      ],
      [
        "▁Division",
        -8.659976958585883
      ],
      [
        "▁11",
        -8.663755342805995
      ],
      [
        "▁old",
        -8.664145980492357
      ],
      [
        "▁claim",
        -8.665074201012182
      ],
      [
        "nother",
        -8.666941391017712
      ],
      [
        "spite",
        -8.669563452772813
      ],
      [
        "▁contain",
        -8.669766475365844
      ],
      [
        "▁among",
        -8.671143476733878
      ],
      [
        "▁18",
        -8.672041234631447
      ],
      [
        "▁half",
        -8.67208851283344
      ],
      [
        "▁former",
        -8.672887379135165
      ],
      [
        "p",
        -8.673593142871855
      ],
      [
        "▁track",
        -8.678578457817512
      ],
      [
        "▁want",
        -8.678709574909213
      ],
      [
        "▁run",
        -8.682166672740898
      ],
      [
        "▁De",
        -8.684973071530573
      ],
      [
        "▁go",
        -8.68717189614964
      ],
      [
        "▁production",
        -8.687772261973356
      ],
      [
        "▁seven",
        -8.688456632690805
      ],
      [
        "▁suggest",
        -8.691678124422541
      ],
      [
        "▁population",
        -8.6919454046622
      ],
      [
        "▁church",
        -8.694136080904528
      ],
      [
        "▁To",
        -8.695297187576251
      ],
      [
        "▁total",
        -8.695390065869987
      ],
      [
        "▁review",
        -8.696545611550093
      ],
      [
        "▁17",
        -8.696619335378061
      ],
      [
        "▁further",
        -8.699649074368327
      ],
      [
        "ve",
        -8.70307406099776
      ],
      [
        "▁full",
        -8.703453274640225
      ],
      [
        "▁live",
        -8.703637616996712
      ],
      [
        "▁different",
        -8.706827569984478
      ],
      [
        "▁According",
        -8.70928863940125
      ],
      [
        "▁similar",
        -8.70986120705961
      ],
      [
        "▁Church",
        -8.711225368949894
      ],
      [
        "▁192",
        -8.717327046775662
      ],
      [
        "▁militar",
        -8.723281382771091
      ],
      [
        "▁particular",
        -8.724947311180589
      ],
      [
        "▁official",
        -8.727147162824572
      ],
      [
        "&",
        -8.72890372824557
      ],
      [
        "re",
        -8.741225873681156
      ],
      [
        "▁League",
        -8.742881627711595
      ],
      [
        "▁score",
        -8.743452993731882
      ],
      [
        "▁win",
        -8.743732984496546
      ],
      [
        "▁increase",
        -8.7449289987258
      ],
      [
        "▁control",
        -8.745468467468196
      ],
      [
        "▁strong",
        -8.748177928580201
      ],
      [
        "▁every",
        -8.748425253478386
      ],
      [
        "▁Song",
        -8.753143162875553
      ],
      [
        "ebru",
        -8.755340861786479
      ],
      [
        "▁service",
        -8.757589035091279
      ],
      [
        "gave",
        -8.761156194380485
      ],
      [
        "▁defeat",
        -8.763181438891575
      ],
      [
        "stead",
        -8.765366658761877
      ],
      [
        "▁songs",
        -8.76560107879785
      ],
      [
        "!",
        -8.767292267243857
      ],
      [
        "▁Dylan",
        -8.767292975230685
      ],
      [
        "▁unit",
        -8.770595440856187
      ],
      [
        "▁Park",
        -8.771676732134566
      ],
      [
        "▁create",
        -8.772606808479678
      ],
      [
        "▁reported",
        -8.77771464067806
      ],
      [
        "▁air",
        -8.780445701808995
      ],
      [
        "▁story",
        -8.783736968062385
      ],
      [
        "▁human",
        -8.784065331505879
      ],
      [
        "▁days",
        -8.788632137391811
      ],
      [
        "▁cover",
        -8.791485454234993
      ],
      [
        "▁Count",
        -8.79178783154477
      ],
      [
        "▁calle",
        -8.792241051832127
      ],
      [
        "▁General",
        -8.796554455549028
      ],
      [
        "▁hav",
        -8.799002181049824
      ],
      [
        "▁fee",
        -8.79949122034764
      ],
      [
        "▁region",
        -8.802708120828441
      ],
      [
        "▁Japan",
        -8.807213817521177
      ],
      [
        "▁pass",
        -8.80758510512873
      ],
      [
        "▁east",
        -8.809474015435686
      ],
      [
        "▁head",
        -8.809649267101753
      ],
      [
        "▁match",
        -8.812216805505429
      ],
      [
        "ous",
        -8.81244370338931
      ],
      [
        "▁critic",
        -8.813507403885353
      ],
      [
        "▁body",
        -8.813560148957766
      ],
      [
        "▁field",
        -8.813606845521608
      ],
      [
        "▁tropic",
        -8.81361783234695
      ],
      [
        "▁21",
        -8.816673035096548
      ],
      [
        "▁project",
        -8.819894873068314
      ],
      [
        "▁believe",
        -8.820040599455503
      ],
      [
        "▁we",
        -8.820677479825243
      ],
      [
        "▁writing",
        -8.821200112356808
      ],
      [
        "▁America",
        -8.8242159193246
      ],
      [
        "away",
        -8.825052739774588
      ],
      [
        "▁country",
        -8.828179454114084
      ],
      [
        "▁west",
        -8.828729877343964
      ],
      [
        "seen",
        -8.828821544799444
      ],
      [
        "▁Whil",
        -8.830712238290463
      ],
      [
        "given",
        -8.831010253843111
      ],
      [
        "lost",
        -8.831710957853922
      ],
      [
        "▁members",
        -8.834454934960753
      ],
      [
        "▁young",
        -8.835489076972067
      ],
      [
        "▁thought",
        -8.839000491760931
      ],
      [
        "▁mak",
        -8.840314563529878
      ],
      [
        "▁tour",
        -8.842194337585784
      ],
      [
        "▁appearance",
        -8.843222879115583
      ],
      [
        "▁range",
        -8.843621772978707
      ],
      [
        "▁star",
        -8.84546637248791
      ],
      [
        "▁operation",
        -8.845598054494616
      ],
      [
        "▁house",
        -8.845676018622884
      ],
      [
        "▁term",
        -8.847869857174917
      ],
      [
        "went",
        -8.84797242157294
      ],
      [
        "▁Award",
        -8.84931837139545
      ],
      [
        "▁Arm",
        -8.850562577138204
      ],
      [
        "▁per",
        -8.850979299463942
      ],
      [
        "▁development",
        -8.851438543825148
      ],
      [
        "▁never",
        -8.852263752744975
      ],
      [
        "▁style",
        -8.853343345985463
      ],
      [
        "other",
        -8.854017975384757
      ],
      [
        "▁popular",
        -8.854855532382492
      ],
      [
        "▁award",
        -8.856436546440388
      ],
      [
        "▁Universit",
        -8.856503512060428
      ],
      [
        "▁L",
        -8.859177049888128
      ],
      [
        "▁date",
        -8.86001612802325
      ],
      [
        "mm",
        -8.86104110430144
      ],
      [
        "▁action",
        -8.862389270457403
      ],
      [
        "▁plan",
        -8.862532928931087
      ],
      [
        "▁toward",
        -8.870067339081093
      ],
      [
        "▁Australian",
        -8.871440011532538
      ],
      [
        "▁West",
        -8.873131418501082
      ],
      [
        "▁24",
        -8.87326910662482
      ],
      [
        "ers",
        -8.87569705942197
      ],
      [
        "▁190",
        -8.875925710245923
      ],
      [
        "el",
        -8.878513515206468
      ],
      [
        "▁scene",
        -8.88322348892192
      ],
      [
        "way",
        -8.886195852670802
      ],
      [
        "▁enter",
        -8.886833293120752
      ],
      [
        "▁Ire",
        -8.887126847741852
      ],
      [
        "▁chart",
        -8.887166036688722
      ],
      [
        "▁novel",
        -8.887374745136896
      ],
      [
        "▁hour",
        -8.887557939328403
      ],
      [
        "▁band",
        -8.887690152476122
      ],
      [
        "▁23",
        -8.88776246616126
      ],
      [
        "▁join",
        -8.887983174476288
      ],
      [
        "▁earlie",
        -8.892570316065163
      ],
      [
        "▁50",
        -8.894140287594784
      ],
      [
        "▁island",
        -8.895703029061973
      ],
      [
        "▁22",
        -8.896801450977554
      ],
      [
        "▁You",
        -8.897477955730988
      ],
      [
        "▁see",
        -8.901767683355597
      ],
      [
        "▁writer",
        -8.90213909781401
      ],
      [
        "across",
        -8.902579648338442
      ],
      [
        "ither",
        -8.902638968104709
      ],
      [
        "▁element",
        -8.903918712614463
      ],
      [
        "▁low",
        -8.905321510871095
      ],
      [
        "felt",
        -8.908655794712041
      ],
      [
        "▁route",
        -8.91022297398903
      ],
      [
        "▁London",
        -8.911030482418955
      ],
      [
        "▁light",
        -8.911993425056252
      ],
      [
        "▁28",
        -8.914025846541541
      ],
      [
        "ism",
        -8.916992040974444
      ],
      [
        "▁real",
        -8.918294858032446
      ],
      [
        "ern",
        -8.919096824034785
      ],
      [
        "▁good",
        -8.920614874305773
      ],
      [
        "▁train",
        -8.92153289493585
      ],
      [
        "at",
        -8.924912881089892
      ],
      [
        "ship",
        -8.92941119144707
      ],
      [
        "using",
        -8.930711762053262
      ],
      [
        "▁Australia",
        -8.932614491489154
      ],
      [
        "▁King",
        -8.933843336834187
      ],
      [
        "▁significant",
        -8.938658227402598
      ],
      [
        "ley",
        -8.940732323288781
      ],
      [
        "▁important",
        -8.944417367383735
      ],
      [
        "▁Black",
        -8.944575545393013
      ],
      [
        "▁initial",
        -8.94489319241389
      ],
      [
        "▁sign",
        -8.946519860081384
      ],
      [
        "▁road",
        -8.94929628973253
      ],
      [
        "▁white",
        -8.950311081774647
      ],
      [
        "▁father",
        -8.950952950590795
      ],
      [
        "▁stage",
        -8.951049966527211
      ],
      [
        "▁act",
        -8.951462859056772
      ],
      [
        "▁female",
        -8.952294992730947
      ],
      [
        "▁television",
        -8.95242508732594
      ],
      [
        "less",
        -8.952519971517683
      ],
      [
        "▁26",
        -8.952601216789365
      ],
      [
        "▁eight",
        -8.953811200422578
      ],
      [
        "▁various",
        -8.957266752770305
      ],
      [
        "▁U.S.",
        -8.957280485896693
      ],
      [
        "▁interest",
        -8.957383662249754
      ],
      [
        "▁town",
        -8.95898489169618
      ],
      [
        "▁minute",
        -8.95976439683291
      ],
      [
        "▁black",
        -8.964746745186378
      ],
      [
        "▁miles",
        -8.964815233071077
      ],
      [
        "▁James",
        -8.964860963950677
      ],
      [
        "ally",
        -8.96900355713959
      ],
      [
        "▁Compan",
        -8.96982686540776
      ],
      [
        "▁face",
        -8.97012116345666
      ],
      [
        "ical",
        -8.97367869789771
      ],
      [
        "▁successful",
        -8.974949947125783
      ],
      [
        "▁establish",
        -8.97520306829629
      ],
      [
        "▁does",
        -8.975932354293043
      ],
      [
        "▁publishe",
        -8.978195976856561
      ],
      [
        "▁case",
        -8.979289089580533
      ],
      [
        "▁peak",
        -8.981371831023543
      ],
      [
        "▁less",
        -8.983817632852155
      ],
      [
        "▁political",
        -8.984151622554094
      ],
      [
        "▁finish",
        -8.985008536500454
      ],
      [
        "▁discover",
        -8.986958693638432
      ],
      [
        "▁W",
        -8.988903128495693
      ],
      [
        "▁poem",
        -8.995339826019295
      ],
      [
        "▁19",
        -8.997262243048596
      ],
      [
        "thos",
        -8.999713569950679
      ],
      [
        "▁look",
        -9.000264686362197
      ],
      [
        "▁example",
        -9.000792414601129
      ],
      [
        "▁need",
        -9.00127042474536
      ],
      [
        "▁mov",
        -9.001638118328561
      ],
      [
        "▁events",
        -9.002310527166696
      ],
      [
        "▁sent",
        -9.004192435741945
      ],
      [
        "▁art",
        -9.007607603278068
      ],
      [
        "▁Road",
        -9.008395056200754
      ],
      [
        "▁influence",
        -9.008602181780855
      ],
      [
        "▁station",
        -9.01119909246189
      ],
      [
        "▁should",
        -9.011457576203355
      ],
      [
        "▁effect",
        -9.013432771392695
      ],
      [
        "▁kill",
        -9.016213959700671
      ],
      [
        "▁eventual",
        -9.019247932656771
      ],
      [
        "▁times",
        -9.020841117895436
      ],
      [
        "▁modern",
        -9.024668694568152
      ],
      [
        "▁structure",
        -9.026850423003573
      ],
      [
        "hind",
        -9.031336913281443
      ],
      [
        "▁entire",
        -9.032249350587923
      ],
      [
        "▁construction",
        -9.037407058884106
      ],
      [
        "▁represent",
        -9.039981335701967
      ],
      [
        "▁Tw",
        -9.04171625316281
      ],
      [
        "▁success",
        -9.043276460552313
      ],
      [
        "▁mid",
        -9.046859478730447
      ],
      [
        "▁noted",
        -9.047660137653585
      ],
      [
        "▁27",
        -9.048755598002312
      ],
      [
        "▁bird",
        -9.05205087689065
      ],
      [
        "▁H",
        -9.052671377833933
      ],
      [
        "▁national",
        -9.053893682673339
      ],
      [
        "F",
        -9.058183462974121
      ],
      [
        "▁leas",
        -9.059052030683237
      ],
      [
        "’",
        -9.059446940368662
      ],
      [
        "▁ground",
        -9.061106238589762
      ],
      [
        "▁locate",
        -9.064043168511516
      ],
      [
        "▁We",
        -9.064257868700775
      ],
      [
        "▁hurricane",
        -9.067757237631936
      ],
      [
        "▁debut",
        -9.067770856361037
      ],
      [
        "▁man",
        -9.07226382932992
      ],
      [
        "▁Care",
        -9.073693147405477
      ],
      [
        "▁difficult",
        -9.076137164047594
      ],
      [
        "▁Kingdom",
        -9.076189870161425
      ],
      [
        "▁campaign",
        -9.078946253589153
      ],
      [
        "▁come",
        -9.07973209450915
      ],
      [
        "once",
        -9.081930438647579
      ],
      [
        "▁victor",
        -9.084574002798576
      ],
      [
        "▁person",
        -9.085721200111266
      ],
      [
        "▁addition",
        -9.087609796657054
      ],
      [
        "▁Cup",
        -9.087641535029775
      ],
      [
        "▁offer",
        -9.089462576975272
      ],
      [
        "▁cause",
        -9.090460654000076
      ],
      [
        "littl",
        -9.091011360625625
      ],
      [
        "K",
        -9.092285117579372
      ],
      [
        "▁give",
        -9.093028818668603
      ],
      [
        "▁Island",
        -9.096137248602542
      ],
      [
        "▁highway",
        -9.099379751965547
      ],
      [
        "▁G",
        -9.099540583042426
      ],
      [
        "▁announce",
        -9.101592717625554
      ],
      [
        "▁fight",
        -9.101864129196052
      ],
      [
        "▁experience",
        -9.102521281911882
      ],
      [
        "▁came",
        -9.102982389256194
      ],
      [
        "taken",
        -9.103210364791721
      ],
      [
        "▁No",
        -9.10440265698199
      ],
      [
        "▁Love",
        -9.1098426883757
      ],
      [
        "▁visit",
        -9.110116627441595
      ],
      [
        "▁Some",
        -9.11021660594004
      ],
      [
        "▁get",
        -9.110758545877085
      ],
      [
        "▁figure",
        -9.111160938318282
      ],
      [
        "coming",
        -9.112898117809266
      ],
      [
        "▁male",
        -9.113765023867858
      ],
      [
        "▁Battalion",
        -9.116199723536875
      ],
      [
        "▁view",
        -9.118429402910433
      ],
      [
        "▁David",
        -9.119124083531265
      ],
      [
        "▁night",
        -9.119220384201943
      ],
      [
        "▁southern",
        -9.119385255410211
      ],
      [
        "▁report",
        -9.119884068005202
      ],
      [
        "▁wife",
        -9.120854021569059
      ],
      [
        "▁France",
        -9.122374598724807
      ],
      [
        "▁coast",
        -9.122476937313394
      ],
      [
        "▁guns",
        -9.123797484928152
      ],
      [
        "▁di",
        -9.125991349119428
      ],
      [
        "▁Brigade",
        -9.127947277385342
      ],
      [
        "▁women",
        -9.127947400204672
      ],
      [
        "▁study",
        -9.12837476684051
      ],
      [
        "line",
        -9.128952234505586
      ],
      [
        "▁wide",
        -9.131534182938811
      ],
      [
        "▁command",
        -9.13295332221145
      ],
      [
        "▁goal",
        -9.133037043574323
      ],
      [
        "ar",
        -9.133969383530392
      ],
      [
        "▁free",
        -9.134440990657815
      ],
      [
        "▁class",
        -9.13455215364146
      ],
      [
        "▁though",
        -9.135293396081106
      ],
      [
        "▁love",
        -9.136946476362471
      ],
      [
        "▁comment",
        -9.137133535318045
      ],
      [
        "▁put",
        -9.138733938003927
      ],
      [
        "▁mother",
        -9.139090322713564
      ],
      [
        "▁eastern",
        -9.14072093805515
      ],
      [
        "▁relationship",
        -9.14115168822053
      ],
      [
        "toge",
        -9.143360967979985
      ],
      [
        "▁Grand",
        -9.143395682693697
      ],
      [
        "▁born",
        -9.143449823044966
      ],
      [
        "▁image",
        -9.146342877489047
      ],
      [
        "A",
        -9.148009336107252
      ],
      [
        "wood",
        -9.148063577672932
      ],
      [
        "▁Robert",
        -9.148288801152844
      ],
      [
        "side",
        -9.14897466589506
      ],
      [
        "▁Other",
        -9.152499870194529
      ],
      [
        "most",
        -9.153177167900003
      ],
      [
        "▁post",
        -9.154931094269525
      ],
      [
        "▁Roman",
        -9.156751189327734
      ],
      [
        "▁age",
        -9.158095370944244
      ],
      [
        "▁involve",
        -9.1587494237974
      ],
      [
        "▁fourth",
        -9.161140306179032
      ],
      [
        "field",
        -9.161973043477513
      ],
      [
        "▁Europe",
        -9.163929662455665
      ],
      [
        "▁European",
        -9.164692563912148
      ],
      [
        "▁hit",
        -9.166720257355749
      ],
      [
        "ford",
        -9.16705370873845
      ],
      [
        "▁Music",
        -9.167890566036284
      ],
      [
        "▁race",
        -9.17028858706633
      ],
      [
        "▁40",
        -9.170378881092352
      ],
      [
        "▁stars",
        -9.17231265473896
      ],
      [
        "to",
        -9.172653295831662
      ],
      [
        "hose",
        -9.173950529249026
      ],
      [
        "▁heavy",
        -9.176368487008926
      ],
      [
        "▁idea",
        -9.17739031650326
      ],
      [
        "▁God",
        -9.178524201750765
      ],
      [
        "▁exist",
        -9.17954363489163
      ],
      [
        "one",
        -9.179865111801885
      ],
      [
        "▁process",
        -9.17994990469885
      ],
      [
        "▁decided",
        -9.180775418313267
      ],
      [
        "▁29",
        -9.18110196281732
      ],
      [
        "▁mi",
        -9.181695143042786
      ],
      [
        "▁problem",
        -9.182589377271736
      ],
      [
        "▁White",
        -9.18476299600208
      ],
      [
        "nd",
        -9.187532998890296
      ],
      [
        "▁individual",
        -9.188848845991602
      ],
      [
        "▁lack",
        -9.192004056762777
      ],
      [
        "ather",
        -9.192437492340437
      ],
      [
        "N",
        -9.19256933636499
      ],
      [
        "▁sold",
        -9.193056369620074
      ],
      [
        "aid",
        -9.195015129922357
      ],
      [
        "▁consist",
        -9.195109867437662
      ],
      [
        "▁condom",
        -9.19516168651969
      ],
      [
        "brough",
        -9.19525070197217
      ],
      [
        "▁non",
        -9.195533235883612
      ],
      [
        "▁William",
        -9.196038628625057
      ],
      [
        "ian",
        -9.19696216205952
      ],
      [
        "▁rule",
        -9.197274536020888
      ],
      [
        "▁director",
        -9.19787056991704
      ],
      [
        "▁program",
        -9.200636847378929
      ],
      [
        "▁capture",
        -9.200860956227697
      ],
      [
        "▁gun",
        -9.201145933066176
      ],
      [
        "▁Royal",
        -9.20157798378112
      ],
      [
        "▁communit",
        -9.20482760321936
      ],
      [
        "▁member",
        -9.206957731620594
      ],
      [
        "▁Earl",
        -9.20749462257629
      ],
      [
        "▁East",
        -9.208098691527471
      ],
      [
        "▁rest",
        -9.209323723132389
      ],
      [
        "read",
        -9.210455973654254
      ],
      [
        "▁limit",
        -9.21150614876119
      ],
      [
        "▁village",
        -9.213178060535425
      ],
      [
        "▁accept",
        -9.214653727361313
      ],
      [
        "▁shot",
        -9.214662058081784
      ],
      [
        "▁protein",
        -9.217513268809899
      ],
      [
        "▁Federer",
        -9.217532326978555
      ],
      [
        "▁theme",
        -9.21766365480719
      ],
      [
        "▁begin",
        -9.217808752407073
      ],
      [
        "more",
        -9.223202215228032
      ],
      [
        "▁require",
        -9.223654319516442
      ],
      [
        "▁International",
        -9.227253612364562
      ],
      [
        "▁find",
        -9.227425202465955
      ],
      [
        "▁source",
        -9.227451304501336
      ],
      [
        "▁George",
        -9.227533008165615
      ],
      [
        "▁V",
        -9.227646410068974
      ],
      [
        "▁estimate",
        -9.227812412734211
      ],
      [
        "▁my",
        -9.229073674405328
      ],
      [
        "▁manager",
        -9.229236594928768
      ],
      [
        "cy",
        -9.229383713210147
      ],
      [
        "▁center",
        -9.230847800847753
      ],
      [
        "▁activit",
        -9.231651900956638
      ],
      [
        "▁language",
        -9.23380019588344
      ],
      [
        "▁Wales",
        -9.234262496445524
      ],
      [
        "▁hand",
        -9.234372175585897
      ],
      [
        "▁works",
        -9.235803740257218
      ],
      [
        "▁replace",
        -9.23616764822403
      ],
      [
        "▁No.",
        -9.23976477849148
      ],
      [
        "▁front",
        -9.239771166731831
      ],
      [
        "▁regular",
        -9.240390134785478
      ],
      [
        "▁current",
        -9.241802975354233
      ],
      [
        "ium",
        -9.243413381102338
      ],
      [
        "▁House",
        -9.24402129185114
      ],
      [
        "▁St",
        -9.244925776114423
      ],
      [
        "▁manage",
        -9.24645400416099
      ],
      [
        "▁Christian",
        -9.246821304293661
      ],
      [
        "▁cell",
        -9.248436003800323
      ],
      [
        "town",
        -9.24944037684811
      ],
      [
        "▁son",
        -9.249737662807087
      ],
      [
        "▁voice",
        -9.249777966365837
      ],
      [
        "▁destroy",
        -9.25010399645001
      ],
      [
        "▁Hero",
        -9.252992822014752
      ],
      [
        "▁clear",
        -9.253628613530505
      ],
      [
        "▁Street",
        -9.257057958742568
      ],
      [
        "▁ask",
        -9.258466343435067
      ],
      [
        "▁opening",
        -9.259002091426101
      ],
      [
        "▁Championship",
        -9.26044294385142
      ],
      [
        "▁battle",
        -9.260720437734877
      ],
      [
        "▁yard",
        -9.260733559413396
      ],
      [
        "day",
        -9.261883000984522
      ],
      [
        "▁artist",
        -9.26326818074573
      ],
      [
        "▁Follow",
        -9.263802450713248
      ],
      [
        "served",
        -9.263965306293095
      ],
      [
        "▁river",
        -9.26534540611653
      ],
      [
        "ist",
        -9.266244212198341
      ],
      [
        "▁size",
        -9.267043883169176
      ],
      [
        "▁Jordan",
        -9.267192262930493
      ],
      [
        "▁Nav",
        -9.268477836029401
      ],
      [
        "▁wall",
        -9.269440460323061
      ],
      [
        "▁Ma",
        -9.269745838801736
      ],
      [
        "▁regard",
        -9.270594199232281
      ],
      [
        "▁From",
        -9.270635117180184
      ],
      [
        "▁evidence",
        -9.270668886678434
      ],
      [
        "▁commercial",
        -9.270937294475358
      ],
      [
        "▁far",
        -9.272468433884452
      ],
      [
        "▁fall",
        -9.273784227578592
      ],
      [
        "▁gain",
        -9.274039195428124
      ],
      [
        "v",
        -9.274243194338457
      ],
      [
        "▁Game",
        -9.27538040771427
      ],
      [
        "am",
        -9.27538455819116
      ],
      [
        "▁central",
        -9.275443854932917
      ],
      [
        "ircraft",
        -9.275655162608206
      ],
      [
        "ington",
        -9.275724013177559
      ],
      [
        "▁me",
        -9.278444064181475
      ],
      [
        "▁agree",
        -9.280662644902996
      ],
      [
        "▁31",
        -9.280912546897813
      ],
      [
        "▁rock",
        -9.281823780950667
      ],
      [
        "▁draw",
        -9.284192325142598
      ],
      [
        "▁scor",
        -9.284601526042916
      ],
      [
        "▁event",
        -9.28493741215775
      ],
      [
        "▁fail",
        -9.287999271642558
      ],
      [
        "▁average",
        -9.289909329912138
      ],
      [
        "▁reveal",
        -9.29124891373026
      ],
      [
        "▁subsequent",
        -9.291285134807211
      ],
      [
        "▁grow",
        -9.295974795935955
      ],
      [
        "▁19th",
        -9.296345672866522
      ],
      [
        "▁co",
        -9.296656686085669
      ],
      [
        "▁northern",
        -9.298578349810949
      ],
      [
        "▁troops",
        -9.298898898902475
      ],
      [
        "▁rank",
        -9.300820903718492
      ],
      [
        "ch",
        -9.301152924201006
      ],
      [
        "▁Rock",
        -9.302413249447122
      ],
      [
        "▁Part",
        -9.303026486504555
      ],
      [
        "low",
        -9.30404395255224
      ],
      [
        "▁Port",
        -9.304981793685558
      ],
      [
        "▁Flori",
        -9.305837825143422
      ],
      [
        "▁500",
        -9.306171974615241
      ],
      [
        "▁advance",
        -9.307148852656109
      ],
      [
        "▁recording",
        -9.307159682775834
      ],
      [
        "▁praise",
        -9.307309334101628
      ],
      [
        "▁word",
        -9.307934137887894
      ],
      [
        "▁section",
        -9.310340398103286
      ],
      [
        "▁Red",
        -9.310794726534457
      ],
      [
        "▁location",
        -9.314606129260468
      ],
      [
        "▁outside",
        -9.315408378181171
      ],
      [
        "▁league",
        -9.317381433671883
      ],
      [
        "▁saw",
        -9.317438623913368
      ],
      [
        "▁crew",
        -9.317491666932103
      ],
      [
        "▁possible",
        -9.318616503366162
      ],
      [
        "▁competition",
        -9.319470083379219
      ],
      [
        "▁mean",
        -9.320313997436399
      ],
      [
        "▁Le",
        -9.321768839139533
      ],
      [
        "▁international",
        -9.323053902842725
      ],
      [
        "▁effort",
        -9.32306488568609
      ],
      [
        "▁Michael",
        -9.324044537483871
      ],
      [
        "▁Most",
        -9.324671851329882
      ],
      [
        "▁saying",
        -9.325291969762702
      ],
      [
        "▁contract",
        -9.329720215033179
      ],
      [
        "▁Missouri",
        -9.330260376377169
      ],
      [
        "▁Hurricane",
        -9.330260474757225
      ],
      [
        "▁whom",
        -9.33226985112907
      ],
      [
        "▁break",
        -9.33289062773423
      ],
      [
        "▁poor",
        -9.333492126007634
      ],
      [
        "▁flood",
        -9.333787839642646
      ],
      [
        "▁account",
        -9.33380437199023
      ],
      [
        "special",
        -9.333850796641322
      ],
      [
        "▁Paul",
        -9.334272485238056
      ],
      [
        "▁extend",
        -9.334924742511339
      ],
      [
        "▁length",
        -9.33585586459472
      ],
      [
        "▁cast",
        -9.338356381185209
      ],
      [
        "I",
        -9.339431542004895
      ],
      [
        "▁court",
        -9.339845890814678
      ],
      [
        "▁Indian",
        -9.342521251351041
      ],
      [
        "mph",
        -9.343468958727609
      ],
      [
        "▁yards",
        -9.344040150090688
      ],
      [
        "▁Tech",
        -9.344546150174075
      ],
      [
        "▁material",
        -9.344825479751094
      ],
      [
        "▁producer",
        -9.345127522733192
      ],
      [
        "▁San",
        -9.346275880810847
      ],
      [
        "▁quick",
        -9.34850921033964
      ],
      [
        "▁separate",
        -9.350506728652888
      ],
      [
        "▁reason",
        -9.353345695897067
      ],
      [
        "▁stay",
        -9.35594307457194
      ],
      [
        "▁magazine",
        -9.357512042727734
      ],
      [
        "▁Day",
        -9.358452765935152
      ],
      [
        "▁leave",
        -9.35950659990137
      ],
      [
        "▁learn",
        -9.359623695856694
      ],
      [
        "▁Great",
        -9.35963766922158
      ],
      [
        "▁rate",
        -9.360868202410932
      ],
      [
        "▁met",
        -9.363263019079412
      ],
      [
        "▁First",
        -9.363361219935722
      ],
      [
        "ra",
        -9.363672842016381
      ],
      [
        "▁authorit",
        -9.364031987908858
      ],
      [
        "▁loss",
        -9.364915622233186
      ],
      [
        "▁Best",
        -9.366182268510236
      ],
      [
        "▁Her",
        -9.36705541304021
      ],
      [
        "▁condition",
        -9.367114404144122
      ],
      [
        "▁conduct",
        -9.368038689394329
      ],
      [
        "▁decision",
        -9.368085030490754
      ],
      [
        "▁availab",
        -9.368126620807988
      ],
      [
        "▁1970",
        -9.368500046893002
      ],
      [
        "▁working",
        -9.372549533562221
      ],
      [
        "▁die",
        -9.372646973098199
      ],
      [
        "▁travel",
        -9.37404688386916
      ],
      [
        "▁vocal",
        -9.374463964001809
      ],
      [
        "▁above",
        -9.374801329712145
      ],
      [
        "ball",
        -9.376274481752109
      ],
      [
        "£",
        -9.378417763660526
      ],
      [
        "ine",
        -9.381328845194297
      ],
      [
        "▁horse",
        -9.381865766226223
      ],
      [
        "▁positive",
        -9.382229019431943
      ],
      [
        "▁office",
        -9.384956371496392
      ],
      [
        "▁law",
        -9.385948025090945
      ],
      [
        "▁studio",
        -9.3860440056281
      ],
      [
        "▁Mary",
        -9.386061578865856
      ],
      [
        "▁maintain",
        -9.389873087270715
      ],
      [
        "▁business",
        -9.389886565860383
      ],
      [
        "▁Sun",
        -9.39040928735199
      ],
      [
        "▁winds",
        -9.390715703556474
      ],
      [
        "▁Canada",
        -9.390880784870987
      ],
      [
        "▁plann",
        -9.393627212983553
      ],
      [
        "▁letter",
        -9.393853384565864
      ],
      [
        "▁Africa",
        -9.394822716027196
      ],
      [
        "▁189",
        -9.39522805019877
      ],
      [
        "▁say",
        -9.397491704728424
      ],
      [
        "▁President",
        -9.397781725497861
      ],
      [
        "▁usual",
        -9.39920239757387
      ],
      [
        "▁ten",
        -9.401039106489346
      ],
      [
        "▁Chin",
        -9.401348144730385
      ],
      [
        "°",
        -9.401451383246403
      ],
      [
        "▁construct",
        -9.40186410107927
      ],
      [
        "▁tree",
        -9.402077156791101
      ],
      [
        "▁Henry",
        -9.402480083681443
      ],
      [
        "▁receiv",
        -9.402612046997106
      ],
      [
        "▁India",
        -9.402864489514698
      ],
      [
        "▁referr",
        -9.402871304095118
      ],
      [
        "▁machine",
        -9.405703158544794
      ],
      [
        "▁2000",
        -9.405894922083053
      ],
      [
        "▁king",
        -9.407282159674953
      ],
      [
        "▁arrive",
        -9.408011122226316
      ],
      [
        "▁charge",
        -9.40815936055089
      ],
      [
        "▁soon",
        -9.408452270789072
      ],
      [
        "▁pre",
        -9.408763946083042
      ],
      [
        "▁Oldham",
        -9.409309575547026
      ],
      [
        "▁sea",
        -9.409753265315892
      ],
      [
        "▁metre",
        -9.409891663515907
      ],
      [
        "▁interview",
        -9.411193145862917
      ],
      [
        "▁1990",
        -9.412085778958561
      ],
      [
        "formation",
        -9.41313107069001
      ],
      [
        "▁sometime",
        -9.413515700610365
      ],
      [
        "▁Bay",
        -9.415898464693603
      ],
      [
        "▁Regiment",
        -9.417110309282421
      ],
      [
        "▁Olivier",
        -9.417237057021632
      ],
      [
        "ory",
        -9.417589007406434
      ],
      [
        "ver",
        -9.41999207445404
      ],
      [
        "▁deal",
        -9.421646708323662
      ],
      [
        "▁write",
        -9.422929190042016
      ],
      [
        "ought",
        -9.42307207787605
      ],
      [
        "▁lower",
        -9.423515318424464
      ],
      [
        "▁add",
        -9.424504671014766
      ],
      [
        "▁response",
        -9.425028083507943
      ],
      [
        "▁concert",
        -9.425028106314423
      ],
      [
        "▁western",
        -9.425975835103031
      ],
      [
        "▁Re",
        -9.427548006075298
      ],
      [
        "▁Car",
        -9.428141690747964
      ],
      [
        "▁Mexico",
        -9.429012150758545
      ],
      [
        "▁recent",
        -9.429054829620561
      ],
      [
        "▁probabl",
        -9.429116801906222
      ],
      [
        "▁approach",
        -9.430692680362531
      ],
      [
        "▁Peter",
        -9.43096776236797
      ],
      [
        "▁And",
        -9.431459087195337
      ],
      [
        "▁larges",
        -9.431811875941497
      ],
      [
        "▁social",
        -9.431959053097966
      ],
      [
        "▁taking",
        -9.432213486087562
      ],
      [
        "▁Vietnam",
        -9.433015827213193
      ],
      [
        "▁School",
        -9.433023066937547
      ],
      [
        "▁Later",
        -9.433528362130582
      ],
      [
        "▁J",
        -9.434517096777256
      ],
      [
        "▁mention",
        -9.434841873069637
      ],
      [
        "▁Irish",
        -9.43708613383269
      ],
      [
        "▁Mark",
        -9.437340485277279
      ],
      [
        "▁Times",
        -9.44113110890585
      ],
      [
        "▁capital",
        -9.441390721845481
      ],
      [
        "men",
        -9.442317523762831
      ],
      [
        "▁brother",
        -9.445135074662643
      ],
      [
        "▁transport",
        -9.445468689165518
      ],
      [
        "▁test",
        -9.448537828423891
      ],
      [
        "▁flight",
        -9.44904600349545
      ],
      [
        "▁Canadian",
        -9.449186094244366
      ],
      [
        "▁Thomas",
        -9.449213174655588
      ],
      [
        "▁football",
        -9.450849358613198
      ],
      [
        "▁must",
        -9.45178500775363
      ],
      [
        "▁nine",
        -9.453105437606371
      ],
      [
        "▁prevent",
        -9.45323816494146
      ],
      [
        "▁shape",
        -9.455995635927003
      ],
      [
        "▁introduce",
        -9.457254868517484
      ],
      [
        "▁Mount",
        -9.457346033522871
      ],
      [
        "▁religious",
        -9.457354086496746
      ],
      [
        "elve",
        -9.458982938433227
      ],
      [
        "▁Jack",
        -9.46014553385956
      ],
      [
        "▁broke",
        -9.460602507654027
      ],
      [
        "▁Hall",
        -9.46126038983877
      ],
      [
        "▁explain",
        -9.461469806918196
      ],
      [
        "▁network",
        -9.461473305510674
      ],
      [
        "▁pressure",
        -9.461508110344269
      ],
      [
        "▁forward",
        -9.461934308450022
      ],
      [
        "▁subject",
        -9.46216550228628
      ],
      [
        "▁slow",
        -9.463611969886424
      ],
      [
        "▁188",
        -9.463814760655161
      ],
      [
        "▁185",
        -9.464522377253257
      ],
      [
        "▁surface",
        -9.465375737731872
      ],
      [
        "▁Brown",
        -9.465582452602085
      ],
      [
        "▁Du",
        -9.466246229285769
      ],
      [
        "▁Ri",
        -9.466559517392515
      ],
      [
        "▁studie",
        -9.467080328740698
      ],
      [
        "▁1960",
        -9.467202994450137
      ],
      [
        "▁60",
        -9.469314760193946
      ],
      [
        "▁increasing",
        -9.469750921909895
      ],
      [
        "▁Guitar",
        -9.469751629317393
      ],
      [
        "▁NY",
        -9.469855117490068
      ],
      [
        "▁approximate",
        -9.46990277482066
      ],
      [
        "▁That",
        -9.46993509735921
      ],
      [
        "▁standard",
        -9.470989161482954
      ],
      [
        "▁caus",
        -9.47224561263262
      ],
      [
        "▁liv",
        -9.47243880479212
      ],
      [
        "▁Sea",
        -9.47293228825645
      ],
      [
        "▁share",
        -9.473406308668858
      ],
      [
        "▁intend",
        -9.47503855465295
      ],
      [
        "▁professional",
        -9.4751928561828
      ],
      [
        "tic",
        -9.475637200794626
      ],
      [
        "▁burn",
        -9.47585997470738
      ],
      [
        "▁00",
        -9.475954786545312
      ],
      [
        "▁car",
        -9.476178110866943
      ],
      [
        "▁specific",
        -9.477514087367702
      ],
      [
        "ville",
        -9.478396643089727
      ],
      [
        "▁cost",
        -9.478449364018168
      ],
      [
        "▁actor",
        -9.47865420779134
      ],
      [
        "▁piece",
        -9.47950690904884
      ],
      [
        "▁goals",
        -9.479607427749361
      ],
      [
        "▁hold",
        -9.479648767418631
      ],
      [
        "▁foot",
        -9.480455189055434
      ],
      [
        "▁seem",
        -9.481989757644069
      ],
      [
        "▁relative",
        -9.482533145882584
      ],
      [
        "▁friend",
        -9.482932266831337
      ],
      [
        "▁Jin",
        -9.483069941470408
      ],
      [
        "▁fact",
        -9.483799232052505
      ],
      [
        "▁typical",
        -9.485024875685966
      ],
      [
        "?",
        -9.486522778867275
      ],
      [
        "▁ball",
        -9.487320725767631
      ],
      [
        "▁fly",
        -9.488887781483227
      ],
      [
        "▁space",
        -9.489669459841082
      ],
      [
        "▁election",
        -9.490054028584916
      ],
      [
        "ial",
        -9.490451508524856
      ],
      [
        "▁territor",
        -9.49068249387024
      ],
      [
        "▁certain",
        -9.490761499605314
      ],
      [
        "▁might",
        -9.490789692040567
      ],
      [
        "▁winning",
        -9.49081345386734
      ],
      [
        "▁injur",
        -9.490835234799508
      ],
      [
        "▁Histor",
        -9.491384276732807
      ],
      [
        "▁police",
        -9.493543477938811
      ],
      [
        "nough",
        -9.493976675022406
      ],
      [
        "▁additional",
        -9.494739590336895
      ],
      [
        "▁Pacific",
        -9.495015386528008
      ],
      [
        "▁immediate",
        -9.495015930559559
      ],
      [
        "▁Union",
        -9.495154068582305
      ],
      [
        "▁past",
        -9.495562469111917
      ],
      [
        "▁stat",
        -9.495950743510665
      ],
      [
        "▁focus",
        -9.496703725382732
      ],
      [
        "▁186",
        -9.497487256220406
      ],
      [
        "▁red",
        -9.498864162087223
      ],
      [
        "▁Light",
        -9.49932806560705
      ],
      [
        "▁detail",
        -9.499345706010647
      ],
      [
        "▁display",
        -9.499507803700574
      ],
      [
        "latter",
        -9.499668556737728
      ],
      [
        "▁division",
        -9.4998705734027
      ],
      [
        "▁depression",
        -9.49994945630662
      ],
      [
        "▁movement",
        -9.500360462604004
      ],
      [
        "▁beginning",
        -9.503613803577304
      ],
      [
        "▁Wheeler",
        -9.504065335183352
      ],
      [
        "▁according",
        -9.504617044284512
      ],
      [
        "▁trade",
        -9.50642753531312
      ],
      [
        "▁carrie",
        -9.507126762571502
      ],
      [
        "▁food",
        -9.507901650373782
      ],
      [
        "house",
        -9.508527038220691
      ],
      [
        "▁gold",
        -9.508701278185772
      ],
      [
        "stein",
        -9.508930612643496
      ],
      [
        "▁resident",
        -9.509048567582212
      ],
      [
        "▁Film",
        -9.51225411245893
      ],
      [
        "▁Star",
        -9.513685285238374
      ],
      [
        "▁daughter",
        -9.515556917396445
      ],
      [
        "▁hard",
        -9.517469384471879
      ],
      [
        "thing",
        -9.518573727722504
      ],
      [
        "▁battalion",
        -9.520934771759748
      ],
      [
        "▁leg",
        -9.522219595679317
      ],
      [
        "▁chose",
        -9.523044347478463
      ],
      [
        "▁St.",
        -9.523814062934473
      ],
      [
        "▁Sinc",
        -9.524102451303548
      ],
      [
        "▁type",
        -9.524109882504849
      ],
      [
        "▁publish",
        -9.52429847676338
      ],
      [
        "▁forest",
        -9.524565120281046
      ],
      [
        "▁fund",
        -9.524685664600437
      ],
      [
        "▁Catholic",
        -9.525320689502603
      ],
      [
        "▁know",
        -9.52727037495639
      ],
      [
        "▁My",
        -9.52763247060037
      ],
      [
        "▁cut",
        -9.528460550145558
      ],
      [
        "▁stone",
        -9.528647775235477
      ],
      [
        "▁Force",
        -9.528699795140152
      ],
      [
        "well",
        -9.532243228853673
      ],
      [
        "ney",
        -9.532914062997769
      ],
      [
        "▁Brita",
        -9.533029764093506
      ],
      [
        "▁Creek",
        -9.534151112729731
      ],
      [
        "▁research",
        -9.534228530583594
      ],
      [
        "head",
        -9.53488899355815
      ],
      [
        "▁save",
        -9.535524275361626
      ],
      [
        "▁soldier",
        -9.535599183829184
      ],
      [
        "▁host",
        -9.536800159973483
      ],
      [
        "▁president",
        -9.537882836236786
      ],
      [
        "▁Command",
        -9.541459129370644
      ],
      [
        "▁futur",
        -9.543243895497564
      ],
      [
        "▁poet",
        -9.546923097296592
      ],
      [
        "▁affect",
        -9.546994170869976
      ],
      [
        "▁industr",
        -9.5474661036836
      ],
      [
        "▁attend",
        -9.54748042174521
      ],
      [
        "▁animal",
        -9.547545179860414
      ],
      [
        "▁centre",
        -9.54766763490841
      ],
      [
        "▁Charles",
        -9.547741590471652
      ],
      [
        "▁Old",
        -9.548436597836474
      ],
      [
        "▁operate",
        -9.549279537641784
      ],
      [
        "▁room",
        -9.550693681327212
      ],
      [
        "▁Hill",
        -9.551577951374703
      ],
      [
        "▁35",
        -9.551672879437838
      ],
      [
        "▁reference",
        -9.551872918950469
      ],
      [
        "▁better",
        -9.552067424398366
      ],
      [
        "▁fleet",
        -9.553262599846867
      ],
      [
        "▁running",
        -9.553776754997946
      ],
      [
        "▁sound",
        -9.55531363901451
      ],
      [
        "upon",
        -9.555513177725977
      ],
      [
        "▁serve",
        -9.556060174842166
      ],
      [
        "▁cit",
        -9.556466459931753
      ],
      [
        "▁sub",
        -9.557097226538932
      ],
      [
        "▁cap",
        -9.558048156437621
      ],
      [
        "osaurus",
        -9.560112308468803
      ],
      [
        "▁Route",
        -9.561134781118131
      ],
      [
        "▁concern",
        -9.561561881919886
      ],
      [
        "▁mix",
        -9.561946772331318
      ],
      [
        "▁practice",
        -9.563235531804173
      ],
      [
        "▁boat",
        -9.563603384070127
      ],
      [
        "▁anti",
        -9.564008315864026
      ],
      [
        "▁woman",
        -9.564084571196378
      ],
      [
        "▁But",
        -9.564990082743616
      ],
      [
        "ham",
        -9.565210598306926
      ],
      [
        "▁heavi",
        -9.565920334549617
      ],
      [
        "▁meeting",
        -9.566029179488677
      ],
      [
        "▁quarter",
        -9.566903767485513
      ],
      [
        "▁culture",
        -9.567795738754679
      ],
      [
        "▁launch",
        -9.568866661464698
      ],
      [
        "playing",
        -9.570547627113417
      ],
      [
        "▁Un",
        -9.570973049743477
      ],
      [
        "ant",
        -9.571732632773813
      ],
      [
        "thus",
        -9.572105806494172
      ],
      [
        "▁featur",
        -9.57431629936213
      ],
      [
        "▁special",
        -9.574368975364795
      ],
      [
        "ance",
        -9.574557685868239
      ],
      [
        "▁port",
        -9.575760516071071
      ],
      [
        "▁creat",
        -9.5764303339639
      ],
      [
        "▁grant",
        -9.579524715856829
      ],
      [
        "▁thing",
        -9.579875590427822
      ],
      [
        "▁Law",
        -9.58002129502095
      ],
      [
        "▁summer",
        -9.58007825081593
      ],
      [
        "▁students",
        -9.58125187516421
      ],
      [
        "▁X",
        -9.581971674743901
      ],
      [
        "▁critical",
        -9.582298433384075
      ],
      [
        "▁45",
        -9.582868941916422
      ],
      [
        "▁187",
        -9.58369623016062
      ],
      [
        "▁La",
        -9.58404074042588
      ],
      [
        "▁fifth",
        -9.584411474396791
      ],
      [
        "▁Atlanti",
        -9.58550838139789
      ],
      [
        "▁80",
        -9.58757123020088
      ],
      [
        "▁Scott",
        -9.588690603007663
      ],
      [
        "▁double",
        -9.589686923159203
      ],
      [
        "▁radio",
        -9.590148815056168
      ],
      [
        "▁lyric",
        -9.590611085037189
      ],
      [
        "▁1980",
        -9.590712137662488
      ],
      [
        "be",
        -9.59075243606603
      ],
      [
        "▁related",
        -9.591533870467988
      ],
      [
        "▁pitch",
        -9.592135525142925
      ],
      [
        "▁bring",
        -9.593709692868739
      ],
      [
        "▁Zealand",
        -9.593773945547788
      ],
      [
        "▁tell",
        -9.594109778185892
      ],
      [
        "▁Wal",
        -9.594982002227512
      ],
      [
        "▁38",
        -9.596608082378545
      ],
      [
        "larger",
        -9.596881354065449
      ],
      [
        "▁Arab",
        -9.598146409133545
      ],
      [
        "▁coach",
        -9.599112673350785
      ],
      [
        "▁connect",
        -9.599351285993558
      ],
      [
        "▁musical",
        -9.601184116864342
      ],
      [
        "▁staff",
        -9.601843340059986
      ],
      [
        "▁dam",
        -9.602285706474522
      ],
      [
        "▁think",
        -9.602322874801555
      ],
      [
        "▁Western",
        -9.603272487419853
      ],
      [
        "pole",
        -9.603387639457187
      ],
      [
        "▁cm",
        -9.60385392887905
      ],
      [
        "▁assign",
        -9.605111135680378
      ],
      [
        "▁Olympic",
        -9.607756806740644
      ],
      [
        "▁personal",
        -9.60877355848189
      ],
      [
        "▁Super",
        -9.609839964100454
      ],
      [
        "ter",
        -9.611506369346536
      ],
      [
        "▁depict",
        -9.612276108075505
      ],
      [
        "▁audience",
        -9.61253173222757
      ],
      [
        "▁private",
        -9.61253447345674
      ],
      [
        "▁Year",
        -9.612646006629266
      ],
      [
        "▁amount",
        -9.61293324449221
      ],
      [
        "▁protect",
        -9.614870674060933
      ],
      [
        "▁lines",
        -9.61557371577802
      ],
      [
        "▁commander",
        -9.615854865919205
      ],
      [
        "▁select",
        -9.617065360708706
      ],
      [
        "▁treat",
        -9.617156123881497
      ],
      [
        "▁Haifa",
        -9.61734252762649
      ],
      [
        "▁Scientology",
        -9.617343008096405
      ],
      [
        "▁propose",
        -9.61742419078239
      ],
      [
        "▁model",
        -9.618342636149439
      ],
      [
        "▁media",
        -9.618408823506574
      ],
      [
        "▁respective",
        -9.620333850261481
      ],
      [
        "▁Air",
        -9.620648926260511
      ],
      [
        "▁describ",
        -9.621360141563962
      ],
      [
        "▁meet",
        -9.622138209873683
      ],
      [
        "▁deliver",
        -9.62218706544548
      ],
      [
        "▁Lake",
        -9.622619446688212
      ],
      [
        "▁watch",
        -9.625864668242034
      ],
      [
        "▁Parliament",
        -9.627024712541175
      ],
      [
        "▁Association",
        -9.627024887249414
      ],
      [
        "▁nature",
        -9.627029840401576
      ],
      [
        "▁Saint",
        -9.627139591095396
      ],
      [
        "▁deep",
        -9.629151653143289
      ],
      [
        "▁tower",
        -9.629352198040749
      ],
      [
        "▁market",
        -9.6302172593495
      ],
      [
        "▁primar",
        -9.63086874438268
      ],
      [
        "achel",
        -9.631695175677432
      ],
      [
        "▁actual",
        -9.632597806176966
      ],
      [
        "▁Gar",
        -9.636216783640709
      ],
      [
        "▁associate",
        -9.636521924845406
      ],
      [
        "illboard",
        -9.636735852231336
      ],
      [
        "▁broadcast",
        -9.638731554288938
      ],
      [
        "ful",
        -9.6402120051637
      ],
      [
        "▁183",
        -9.641009180519692
      ],
      [
        "▁distance",
        -9.641731537808496
      ],
      [
        "▁Battle",
        -9.641913939096849
      ],
      [
        "▁collection",
        -9.641937644020075
      ],
      [
        "▁sequence",
        -9.642163014195601
      ],
      [
        "▁cross",
        -9.642290581473368
      ],
      [
        "▁money",
        -9.646697431459383
      ],
      [
        "▁throw",
        -9.647656973185988
      ],
      [
        "▁link",
        -9.648438466485274
      ],
      [
        "▁Wood",
        -9.651256121763463
      ],
      [
        "▁Council",
        -9.65164888650249
      ],
      [
        "▁cyclone",
        -9.651895946672553
      ],
      [
        "▁Villa",
        -9.653580294465069
      ],
      [
        "▁education",
        -9.653799453275397
      ],
      [
        "▁mass",
        -9.654532885149504
      ],
      [
        "all",
        -9.654627423878289
      ],
      [
        "▁traditional",
        -9.655783136609555
      ],
      [
        "▁Galveston",
        -9.656656449223554
      ],
      [
        "▁leav",
        -9.657487042813692
      ],
      [
        "alway",
        -9.658011106412184
      ],
      [
        "▁Richard",
        -9.66012682560569
      ],
      [
        "▁Jewish",
        -9.661860286576225
      ],
      [
        "▁rare",
        -9.661903876779032
      ],
      [
        "▁1950",
        -9.663287092296356
      ],
      [
        "▁author",
        -9.665514280790994
      ],
      [
        "▁establishe",
        -9.665556753429392
      ],
      [
        "▁try",
        -9.666163895289554
      ],
      [
        "▁Corp",
        -9.666894955702361
      ],
      [
        "▁question",
        -9.667651764648953
      ],
      [
        "old",
        -9.669665745270727
      ],
      [
        "▁brief",
        -9.673616429790345
      ],
      [
        "▁Over",
        -9.675245995519113
      ],
      [
        "▁employ",
        -9.676604679526868
      ],
      [
        "▁Angel",
        -9.676855814316314
      ],
      [
        "▁decade",
        -9.676935728388193
      ],
      [
        "▁El",
        -9.677382613937528
      ],
      [
        "▁Final",
        -9.677608415389344
      ],
      [
        "▁breed",
        -9.680509381698108
      ],
      [
        "▁parent",
        -9.680667359527714
      ],
      [
        "▁meaning",
        -9.681054604472227
      ],
      [
        "▁organization",
        -9.682068957215684
      ],
      [
        "ool",
        -9.682806808108122
      ],
      [
        "▁occur",
        -9.68282867938447
      ],
      [
        "▁Simon",
        -9.683515627812723
      ],
      [
        "▁engineer",
        -9.683927714959088
      ],
      [
        "▁California",
        -9.684496548644638
      ],
      [
        "▁prove",
        -9.684775580037062
      ],
      [
        "▁Earth",
        -9.687246040984308
      ],
      [
        "truck",
        -9.68726291224738
      ],
      [
        "▁situation",
        -9.6872901626673
      ],
      [
        "▁pair",
        -9.687826219791067
      ],
      [
        "ate",
        -9.688021463677616
      ],
      [
        "▁dead",
        -9.688054614234378
      ],
      [
        "▁raise",
        -9.688135664000228
      ],
      [
        "▁Beyon",
        -9.688375292252324
      ],
      [
        "▁produc",
        -9.689599135597526
      ],
      [
        "▁TV",
        -9.69043789658727
      ],
      [
        "▁color",
        -9.690484343164634
      ],
      [
        "▁whe",
        -9.692010259895785
      ],
      [
        "▁guitar",
        -9.692285021921226
      ],
      [
        "▁traffic",
        -9.692419648140763
      ],
      [
        "▁sister",
        -9.692674926361633
      ],
      [
        "▁effective",
        -9.692737574454805
      ],
      [
        "▁tradition",
        -9.69328390773006
      ],
      [
        "II",
        -9.693926486946582
      ],
      [
        "▁Latin",
        -9.696053623473162
      ],
      [
        "▁Howe",
        -9.696595924460464
      ],
      [
        "▁historical",
        -9.697002867632474
      ],
      [
        "▁Under",
        -9.697348484433048
      ],
      [
        "▁universit",
        -9.69758278997774
      ],
      [
        "▁Chicago",
        -9.697583616138516
      ],
      [
        "▁prior",
        -9.698043198557414
      ],
      [
        "▁mission",
        -9.69866565318583
      ],
      [
        "ester",
        -9.702166009310046
      ],
      [
        "▁marriage",
        -9.702821075038873
      ],
      [
        "▁If",
        -9.703728420234428
      ],
      [
        "B",
        -9.703861898270892
      ],
      [
        "▁Alice",
        -9.708456220752044
      ],
      [
        "▁states",
        -9.708821088248737
      ],
      [
        "▁Don",
        -9.708995001199744
      ],
      [
        "▁Scot",
        -9.709259627645544
      ],
      [
        "▁keep",
        -9.709424810967711
      ],
      [
        "▁officers",
        -9.70950554616321
      ],
      [
        "▁singer",
        -9.709814693645445
      ],
      [
        "▁reduce",
        -9.710298480481455
      ],
      [
        "▁gods",
        -9.710305428263641
      ],
      [
        "▁400",
        -9.710392419297552
      ],
      [
        "▁Ross",
        -9.711083151587566
      ],
      [
        "▁plant",
        -9.712801579830561
      ],
      [
        "▁statu",
        -9.713195224090036
      ],
      [
        "▁Nix",
        -9.713463798264641
      ],
      [
        "▁75",
        -9.71579441991344
      ],
      [
        "aught",
        -9.718415828493125
      ],
      [
        "▁defence",
        -9.718691757659512
      ],
      [
        "▁job",
        -9.718697934071097
      ],
      [
        "▁colon",
        -9.719396287139284
      ],
      [
        "▁fans",
        -9.720072992180999
      ],
      [
        "▁1940",
        -9.720966925889895
      ],
      [
        "▁course",
        -9.721805699803923
      ],
      [
        "▁newspaper",
        -9.724039480000839
      ],
      [
        "▁historian",
        -9.724356540879697
      ],
      [
        "▁sexual",
        -9.724428791111563
      ],
      [
        "storie",
        -9.72506470221332
      ],
      [
        "notes",
        -9.725904499462715
      ],
      [
        "ward",
        -9.728185268422724
      ],
      [
        "▁edge",
        -9.728604096566224
      ],
      [
        "▁A.",
        -9.72947594668003
      ],
      [
        "▁batter",
        -9.729770035924222
      ],
      [
        "▁Service",
        -9.729953102513253
      ],
      [
        "▁overall",
        -9.73099786516954
      ],
      [
        "ota",
        -9.731308544305016
      ],
      [
        "▁metal",
        -9.731386209662332
      ],
      [
        "L",
        -9.731760542593618
      ],
      [
        "▁African",
        -9.732982168644702
      ],
      [
        "▁ran",
        -9.73314534479183
      ],
      [
        "▁Up",
        -9.733343560473061
      ],
      [
        "co",
        -9.733787957578679
      ],
      [
        "▁Act",
        -9.734025616722917
      ],
      [
        "▁90",
        -9.734401612768789
      ],
      [
        "▁Second",
        -9.734824189960218
      ],
      [
        "▁request",
        -9.73484523227124
      ],
      [
        "▁painting",
        -9.735005595048525
      ],
      [
        "▁variet",
        -9.736529048510713
      ],
      [
        "▁300",
        -9.737020197810669
      ],
      [
        "▁33",
        -9.73720385013977
      ],
      [
        "ground",
        -9.738547430939587
      ],
      [
        "▁Nation",
        -9.739174106672305
      ],
      [
        "▁marrie",
        -9.73936448276964
      ],
      [
        "bodies",
        -9.739418616591044
      ],
      [
        "▁minor",
        -9.739440008795503
      ],
      [
        "▁Republic",
        -9.740138016310123
      ],
      [
        "▁tournament",
        -9.74025586264255
      ],
      [
        "▁border",
        -9.740284447366982
      ],
      [
        "▁Alkan",
        -9.7402959888231
      ],
      [
        "▁Liverp",
        -9.740345806885408
      ],
      [
        "▁upper",
        -9.74161605211794
      ],
      [
        "▁1930",
        -9.741654423338854
      ],
      [
        "▁decline",
        -9.742785292220947
      ],
      [
        "▁36",
        -9.743809806771655
      ],
      [
        "▁High",
        -9.745103619472525
      ],
      [
        "▁Centr",
        -9.745227287692993
      ],
      [
        "▁Fort",
        -9.745463757415948
      ],
      [
        "▁rapid",
        -9.745723129216614
      ],
      [
        "▁achieve",
        -9.746152785540897
      ],
      [
        "▁whole",
        -9.74617265116899
      ],
      [
        "▁70",
        -9.747605497376005
      ],
      [
        "▁read",
        -9.749666791619529
      ],
      [
        "+",
        -9.75121481320789
      ],
      [
        "▁Christmas",
        -9.751215645901416
      ],
      [
        "▁serious",
        -9.751217685934805
      ],
      [
        "▁Texa",
        -9.751219455561722
      ],
      [
        "ir",
        -9.751219528255302
      ],
      [
        "▁So",
        -9.751271556124946
      ],
      [
        "▁continu",
        -9.75149617418711
      ],
      [
        "aylor",
        -9.752049797658966
      ],
      [
        "▁Record",
        -9.752171517714665
      ],
      [
        "▁protest",
        -9.752310254988465
      ],
      [
        "▁measure",
        -9.752341933628788
      ],
      [
        "play",
        -9.7523910666901
      ],
      [
        "▁natural",
        -9.753053512642492
      ],
      [
        "▁Co",
        -9.753835061553792
      ],
      [
        "fore",
        -9.755998276631052
      ],
      [
        "▁adde",
        -9.75701463743399
      ],
      [
        "▁Live",
        -9.758127788106968
      ],
      [
        "▁Somers",
        -9.758323247635605
      ],
      [
        "▁sell",
        -9.759085357483405
      ],
      [
        "▁Van",
        -9.761664640249222
      ],
      [
        "▁got",
        -9.761802274190252
      ],
      [
        "yet",
        -9.762259133203354
      ],
      [
        "▁moment",
        -9.762331659109375
      ],
      [
        "▁script",
        -9.762823632142238
      ],
      [
        "▁defend",
        -9.764262426764713
      ],
      [
        "▁Jane",
        -9.764301570081738
      ],
      [
        "▁Lady",
        -9.764531015280319
      ],
      [
        "▁our",
        -9.7662214607505
      ],
      [
        "▁Mosley",
        -9.767894411918082
      ],
      [
        "▁Italian",
        -9.767949044313456
      ],
      [
        "▁Tropic",
        -9.768618786383838
      ],
      [
        "▁names",
        -9.76940407400714
      ],
      [
        "ur",
        -9.772750258272563
      ],
      [
        "▁Fowle",
        -9.773514888136205
      ],
      [
        "▁rating",
        -9.77520327535182
      ],
      [
        "▁passe",
        -9.777367966759053
      ],
      [
        "▁speak",
        -9.777373532393591
      ],
      [
        "▁miss",
        -9.778389327885773
      ],
      [
        "▁mountain",
        -9.778803552623984
      ],
      [
        "done",
        -9.77893966666885
      ],
      [
        "▁conflict",
        -9.779149524749627
      ],
      [
        "▁Three",
        -9.779149665706221
      ],
      [
        "▁Squadron",
        -9.779150342574084
      ],
      [
        "▁temple",
        -9.77916257678894
      ],
      [
        "giving",
        -9.779189498743198
      ],
      [
        "▁native",
        -9.779245248155432
      ],
      [
        "▁Carolina",
        -9.78047940367825
      ],
      [
        "▁contemporar",
        -9.78483184783239
      ],
      [
        "▁cathedral",
        -9.784871977524691
      ],
      [
        "▁pay",
        -9.785001936053428
      ],
      [
        "▁Tour",
        -9.785013626479715
      ],
      [
        "▁avoid",
        -9.785126530556608
      ],
      [
        "▁appointe",
        -9.786426284174714
      ],
      [
        "▁runs",
        -9.787060611866455
      ],
      [
        "▁Of",
        -9.787276011822383
      ],
      [
        "▁key",
        -9.78856987080545
      ],
      [
        "▁tail",
        -9.788764211900865
      ],
      [
        "ro",
        -9.789636169619843
      ],
      [
        "▁abandon",
        -9.790546800119198
      ],
      [
        "▁potential",
        -9.790551453388854
      ],
      [
        "▁health",
        -9.790655386604513
      ],
      [
        "▁slight",
        -9.791774743345087
      ],
      [
        "▁access",
        -9.79253378865788
      ],
      [
        "▁indicate",
        -9.793004557235928
      ],
      [
        "▁press",
        -9.793476440724634
      ],
      [
        "ill",
        -9.796307497864177
      ],
      [
        "▁dollar",
        -9.796317672338983
      ],
      [
        "▁Minne",
        -9.796376515192176
      ],
      [
        "▁Paris",
        -9.796387695624606
      ],
      [
        "▁beat",
        -9.796723390405987
      ],
      [
        "▁couple",
        -9.796823492054411
      ],
      [
        "der",
        -9.797022524596397
      ],
      [
        "lie",
        -9.797652763751644
      ],
      [
        "▁marked",
        -9.79925821328063
      ],
      [
        "usch",
        -9.799956626539696
      ],
      [
        "▁Infantr",
        -9.802073139899413
      ],
      [
        "▁credit",
        -9.802073593786819
      ],
      [
        "▁Like",
        -9.802115732764253
      ],
      [
        "▁method",
        -9.802252860671295
      ],
      [
        "TV",
        -9.80229223068822
      ],
      [
        "▁via",
        -9.802561344035826
      ],
      [
        "▁Si",
        -9.803647365479133
      ],
      [
        "▁litera",
        -9.803709315147366
      ],
      [
        "▁Storm",
        -9.80388554659963
      ],
      [
        "▁majorit",
        -9.807273650084676
      ],
      [
        "▁makes",
        -9.80766635714253
      ],
      [
        "▁frequent",
        -9.807887048505886
      ],
      [
        "▁husband",
        -9.807887076744514
      ],
      [
        "▁nation",
        -9.807893603225132
      ],
      [
        "▁demand",
        -9.807926097208334
      ],
      [
        "▁Virginia",
        -9.808101476884755
      ],
      [
        "▁Serie",
        -9.808543593482977
      ],
      [
        "▁Soviet",
        -9.808666781508489
      ],
      [
        "▁girl",
        -9.810387624669936
      ],
      [
        "▁scale",
        -9.81055846018342
      ],
      [
        "▁severe",
        -9.811296080423311
      ],
      [
        "▁speed",
        -9.811411754877774
      ],
      [
        "▁Bill",
        -9.812872445783416
      ],
      [
        "ca",
        -9.813460285625297
      ],
      [
        "▁headquarter",
        -9.813736691003596
      ],
      [
        "▁expand",
        -9.813789011166065
      ],
      [
        "▁College",
        -9.814030902525957
      ],
      [
        "▁active",
        -9.814225380973875
      ],
      [
        "▁qualit",
        -9.814371987163078
      ],
      [
        "▁meant",
        -9.814572968842068
      ],
      [
        "time",
        -9.815883143982937
      ],
      [
        "▁drive",
        -9.816129987566487
      ],
      [
        "▁dark",
        -9.818040372891495
      ],
      [
        "▁presen",
        -9.820197027484024
      ],
      [
        "▁annual",
        -9.820363993396992
      ],
      [
        "ach",
        -9.820948761728282
      ],
      [
        "que",
        -9.820952706509225
      ],
      [
        "▁propert",
        -9.821639286842398
      ],
      [
        "▁seat",
        -9.822607761766353
      ],
      [
        "▁Frank",
        -9.824003436194424
      ],
      [
        "▁Rosebery",
        -9.825535931454127
      ],
      [
        "▁Club",
        -9.825546583113038
      ],
      [
        "▁wound",
        -9.825607615022195
      ],
      [
        "▁Anderson",
        -9.82586812912535
      ],
      [
        "▁god",
        -9.826371056225131
      ],
      [
        "▁inspire",
        -9.828183484461306
      ],
      [
        "▁concept",
        -9.831219113337362
      ],
      [
        "▁piano",
        -9.831487013455877
      ],
      [
        "▁complex",
        -9.831497462216339
      ],
      [
        "▁talk",
        -9.831499856445435
      ],
      [
        "▁fell",
        -9.831864777468919
      ],
      [
        "▁Open",
        -9.832444564482334
      ],
      [
        "▁value",
        -9.835174662095476
      ],
      [
        "▁Dr",
        -9.835381740332089
      ],
      [
        "▁flow",
        -9.835987266724281
      ],
      [
        "ture",
        -9.837451904769612
      ],
      [
        "▁morning",
        -9.83747493659485
      ],
      [
        "▁Museum",
        -9.837475003515834
      ],
      [
        "▁Major",
        -9.83748117168777
      ],
      [
        "▁fill",
        -9.837550073151032
      ],
      [
        "▁copie",
        -9.837960301502537
      ],
      [
        "▁numero",
        -9.838981434464054
      ],
      [
        "▁weapon",
        -9.839043107955236
      ],
      [
        "▁Los",
        -9.83957854866236
      ],
      [
        "▁abilit",
        -9.839741970847838
      ],
      [
        "▁ending",
        -9.84010424112618
      ],
      [
        "▁sentence",
        -9.840359437520284
      ],
      [
        "▁Water",
        -9.841707488774363
      ],
      [
        "▁Green",
        -9.842103363400366
      ],
      [
        "▁Ottoman",
        -9.843542785817213
      ],
      [
        "▁settlement",
        -9.84365339974222
      ],
      [
        "iami",
        -9.843867747603095
      ],
      [
        "▁era",
        -9.844678284121187
      ],
      [
        "▁birth",
        -9.845049029724187
      ],
      [
        "▁leader",
        -9.84640731613458
      ],
      [
        "▁observe",
        -9.846936710988597
      ],
      [
        "▁tie",
        -9.84834251935823
      ],
      [
        "▁elect",
        -9.848921040799732
      ],
      [
        "▁enjoy",
        -9.84964305688898
      ],
      [
        "▁Jackson",
        -9.84990252423788
      ],
      [
        "▁something",
        -9.85038722786517
      ],
      [
        "▁commission",
        -9.851014519000127
      ],
      [
        "▁collect",
        -9.851279188649272
      ],
      [
        "▁Prince",
        -9.853130492854445
      ],
      [
        "▁target",
        -9.855657304516619
      ],
      [
        "▁brigade",
        -9.855658492395303
      ],
      [
        "▁Time",
        -9.85757858253551
      ],
      [
        "▁opera",
        -9.859988068706558
      ],
      [
        "▁safe",
        -9.86018362076074
      ],
      [
        "▁Age",
        -9.860547453630971
      ],
      [
        "▁hundred",
        -9.860794387533266
      ],
      [
        "▁kind",
        -9.860946958867185
      ],
      [
        "companie",
        -9.861785410187068
      ],
      [
        "▁Through",
        -9.86179262347526
      ],
      [
        "▁impact",
        -9.861810980296275
      ],
      [
        "▁Their",
        -9.861934998836984
      ],
      [
        "▁strength",
        -9.862842825043039
      ],
      [
        "▁Sir",
        -9.86335742649018
      ],
      [
        "▁adult",
        -9.864330739433813
      ],
      [
        "▁Pennsylvania",
        -9.865244150435014
      ],
      [
        "▁plot",
        -9.865673171692698
      ],
      [
        "▁party",
        -9.866124896209055
      ],
      [
        "▁44",
        -9.866289883165315
      ],
      [
        "▁determine",
        -9.866870179097264
      ],
      [
        "▁Cross",
        -9.86752888746123
      ],
      [
        "▁reject",
        -9.867707130320213
      ],
      [
        "▁disease",
        -9.867965002074161
      ],
      [
        "▁aspect",
        -9.867967345877055
      ],
      [
        "▁recover",
        -9.868020603649489
      ],
      [
        "▁portion",
        -9.868336042952642
      ],
      [
        "▁artillery",
        -9.868369713130019
      ],
      [
        "where",
        -9.868549011767662
      ],
      [
        "▁47",
        -9.86906047021791
      ],
      [
        "▁mount",
        -9.869459180682785
      ],
      [
        "▁conclude",
        -9.871448503103583
      ],
      [
        "▁Chris",
        -9.871462117031722
      ],
      [
        "▁promote",
        -9.87151311313104
      ],
      [
        "▁search",
        -9.872172989738003
      ],
      [
        "▁bill",
        -9.873568506722307
      ],
      [
        "▁park",
        -9.873589897786381
      ],
      [
        "▁wave",
        -9.87368307920702
      ],
      [
        "▁enem",
        -9.87419380658918
      ],
      [
        "▁powerful",
        -9.874408957167837
      ],
      [
        "▁confirm",
        -9.874486026685629
      ],
      [
        "▁42",
        -9.87534710447761
      ],
      [
        "▁Six",
        -9.875356718557136
      ],
      [
        "ure",
        -9.877655252363859
      ],
      [
        "▁39",
        -9.879574254647448
      ],
      [
        "▁percent",
        -9.880231362160512
      ],
      [
        "▁responsibl",
        -9.880426171749308
      ],
      [
        "▁fruit",
        -9.880682183680115
      ],
      [
        "▁nuclea",
        -9.881556675168794
      ],
      [
        "▁paper",
        -9.88200238888136
      ],
      [
        "▁count",
        -9.882708813714576
      ],
      [
        "▁184",
        -9.883071452761804
      ],
      [
        "▁Me",
        -9.883529021925515
      ],
      [
        "▁inside",
        -9.883634468069541
      ],
      [
        "▁purchase",
        -9.885056496691757
      ],
      [
        "▁bridge",
        -9.88526732181213
      ],
      [
        "▁Chart",
        -9.885540350626254
      ],
      [
        "▁32",
        -9.885551997348756
      ],
      [
        "▁countr",
        -9.885901951071553
      ],
      [
        "▁temperature",
        -9.886725878659888
      ],
      [
        "▁Football",
        -9.886725946369777
      ],
      [
        "while",
        -9.886932781207644
      ],
      [
        "▁edition",
        -9.88721718985488
      ],
      [
        "▁Both",
        -9.887365434795807
      ],
      [
        "Mont",
        -9.888087118133107
      ],
      [
        "▁Queen",
        -9.888584615243868
      ],
      [
        "▁Hot",
        -9.889227714057494
      ],
      [
        "fensive",
        -9.889438827615802
      ],
      [
        "▁purpose",
        -9.88951091101735
      ],
      [
        "▁hear",
        -9.890569176986013
      ],
      [
        "▁Court",
        -9.89202347033519
      ],
      [
        "▁advantage",
        -9.893044594293947
      ],
      [
        "▁Department",
        -9.893044603584798
      ],
      [
        "▁degree",
        -9.893066853976652
      ],
      [
        "▁reception",
        -9.893213503225411
      ],
      [
        "▁feel",
        -9.89468524298709
      ],
      [
        "▁direction",
        -9.8947311910524
      ],
      [
        "▁Brad",
        -9.89493586060981
      ],
      [
        "▁Blue",
        -9.895311329053198
      ],
      [
        "asi",
        -9.895478635888775
      ],
      [
        "▁normal",
        -9.896941304291424
      ],
      [
        "il",
        -9.897083139964593
      ],
      [
        "▁touchdown",
        -9.899421097244208
      ],
      [
        "▁middle",
        -9.899505885579405
      ],
      [
        "▁camp",
        -9.900053590943612
      ],
      [
        "xenon",
        -9.900073555754439
      ],
      [
        "▁blue",
        -9.900865642267007
      ],
      [
        "▁extra",
        -9.901540862090421
      ],
      [
        "▁Tess",
        -9.902008222577237
      ],
      [
        "▁movie",
        -9.902401033959713
      ],
      [
        "▁landing",
        -9.902855141377149
      ],
      [
        "▁Z",
        -9.903439963477272
      ],
      [
        "go",
        -9.903804250372977
      ],
      [
        "▁genu",
        -9.904568506906468
      ],
      [
        "▁widely",
        -9.904869405250428
      ],
      [
        "▁Boy",
        -9.905805881664783
      ],
      [
        "▁Braathen",
        -9.905824280509732
      ],
      [
        "▁Turk",
        -9.905839439385492
      ],
      [
        "▁Louis",
        -9.905850333806416
      ],
      [
        "▁Horse",
        -9.905910516105191
      ],
      [
        "▁Land",
        -9.905974921695144
      ],
      [
        "▁Center",
        -9.906014726286067
      ],
      [
        "▁spen",
        -9.906134189140953
      ],
      [
        "▁promotion",
        -9.906175805242139
      ],
      [
        "▁China",
        -9.906242241297527
      ],
      [
        "▁Severa",
        -9.906885945920283
      ],
      [
        "▁physical",
        -9.906994329291916
      ],
      [
        "▁combine",
        -9.909228591408656
      ],
      [
        "▁pick",
        -9.909345014115257
      ],
      [
        "▁schedule",
        -9.90960770382738
      ],
      [
        "▁lot",
        -9.91097172954149
      ],
      [
        "▁defense",
        -9.912275893248347
      ],
      [
        "▁relief",
        -9.912389239825963
      ],
      [
        "▁Young",
        -9.912422888151028
      ],
      [
        "▁true",
        -9.913342200937912
      ],
      [
        "▁factor",
        -9.915969360499652
      ],
      [
        "▁sixth",
        -9.916424704905099
      ],
      [
        "▁blood",
        -9.916873694629999
      ],
      [
        "▁books",
        -9.918291135898862
      ],
      [
        "▁honor",
        -9.918774740874131
      ],
      [
        "▁Middle",
        -9.918777041588218
      ],
      [
        "▁Egyptian",
        -9.918830635287854
      ],
      [
        "▁Highway",
        -9.918938700102872
      ],
      [
        "▁Societ",
        -9.919003008198661
      ],
      [
        "▁AI",
        -9.919487072359548
      ],
      [
        "▁publication",
        -9.920226012669925
      ],
      [
        "inkel",
        -9.92054838994381
      ],
      [
        "▁argue",
        -9.921925516255117
      ],
      [
        "▁engine",
        -9.922911328447036
      ],
      [
        "▁trial",
        -9.924451577248854
      ],
      [
        "ster",
        -9.925827391670259
      ],
      [
        "▁extreme",
        -9.925938707544537
      ],
      [
        "▁escape",
        -9.926299863695188
      ],
      [
        "▁sense",
        -9.927325744616109
      ],
      [
        "drew",
        -9.927563646157942
      ],
      [
        "▁planet",
        -9.93029856994655
      ],
      [
        "▁legal",
        -9.930324157045163
      ],
      [
        "▁Games",
        -9.930626790778113
      ],
      [
        "▁Marine",
        -9.931165440665158
      ],
      [
        "▁Meyerbeer",
        -9.931884320185379
      ],
      [
        "▁Har",
        -9.93189729024397
      ],
      [
        "▁reache",
        -9.931971247456264
      ],
      [
        "▁Long",
        -9.932057451918721
      ],
      [
        "▁Shiva",
        -9.932372596063455
      ],
      [
        "C",
        -9.933155861294278
      ],
      [
        "BA",
        -9.93349905179106
      ],
      [
        "▁improve",
        -9.933661810298375
      ],
      [
        "▁cricket",
        -9.934102049008933
      ],
      [
        "▁facilit",
        -9.93441169609786
      ],
      [
        "▁Yue",
        -9.935037458601728
      ],
      [
        "ownsend",
        -9.93589576911558
      ],
      [
        "▁friends",
        -9.93651296167762
      ],
      [
        "▁worker",
        -9.937380482835465
      ],
      [
        "S",
        -9.937499360876574
      ],
      [
        "▁reflect",
        -9.938248628387607
      ],
      [
        "▁street",
        -9.938493930162432
      ],
      [
        "▁financial",
        -9.93851151581873
      ],
      [
        "▁Nicole",
        -9.938569908010095
      ],
      [
        "▁weaken",
        -9.939556361581522
      ],
      [
        "wide",
        -9.939939837549668
      ],
      [
        "▁Smith",
        -9.939972388534315
      ],
      [
        "▁shell",
        -9.9403654100376
      ],
      [
        "▁deit",
        -9.94096351312772
      ],
      [
        "▁text",
        -9.94127946093619
      ],
      [
        "▁wing",
        -9.942283077734206
      ],
      [
        "▁Ca",
        -9.942648720384305
      ],
      [
        "▁remove",
        -9.943033179798542
      ],
      [
        "▁Post",
        -9.943643596391833
      ],
      [
        "▁build",
        -9.94373273676489
      ],
      [
        "▁content",
        -9.944631648795603
      ],
      [
        "▁Tom",
        -9.944756235956405
      ],
      [
        "▁brown",
        -9.945173578315323
      ],
      [
        "▁cougar",
        -9.945174235516571
      ],
      [
        "▁provid",
        -9.945369103377885
      ],
      [
        "▁Academ",
        -9.946055188191323
      ],
      [
        "▁Helm",
        -9.946662844002077
      ],
      [
        "▁document",
        -9.947255241780166
      ],
      [
        "▁ultimate",
        -9.948267668946766
      ],
      [
        "▁Operation",
        -9.948896908332836
      ],
      [
        "▁Ha",
        -9.949449628002753
      ],
      [
        "▁murder",
        -9.94968299280264
      ],
      [
        "▁matche",
        -9.950324850995525
      ],
      [
        "▁attention",
        -9.951885108183413
      ],
      [
        "▁opportunit",
        -9.951901037934652
      ],
      [
        "▁casualt",
        -9.952193568317165
      ],
      [
        "▁background",
        -9.95233201353059
      ],
      [
        "▁carry",
        -9.95238106696406
      ],
      [
        "like",
        -9.95257247917398
      ],
      [
        "▁eye",
        -9.953519232520438
      ],
      [
        "▁150",
        -9.953614108619565
      ],
      [
        "▁comed",
        -9.957531888209935
      ],
      [
        "▁box",
        -9.957859651826269
      ],
      [
        "▁screen",
        -9.957869827224265
      ],
      [
        "les",
        -9.958580765723555
      ],
      [
        "▁technique",
        -9.958641643861363
      ],
      [
        "▁Government",
        -9.958644613216876
      ],
      [
        "▁matter",
        -9.958745768151067
      ],
      [
        "▁reaction",
        -9.95874712776994
      ],
      [
        "▁coin",
        -9.960687587653196
      ],
      [
        "▁northeast",
        -9.96495902403448
      ],
      [
        "▁assault",
        -9.965456525353618
      ],
      [
        "▁Hamel",
        -9.96549058073007
      ],
      [
        "▁rise",
        -9.966259999122865
      ],
      [
        "▁walk",
        -9.968922549637927
      ],
      [
        "▁Ver",
        -9.971214259079328
      ],
      [
        "▁express",
        -9.971544368849028
      ],
      [
        "▁specimen",
        -9.97229367708557
      ],
      [
        "▁website",
        -9.97229420484802
      ],
      [
        "▁crowd",
        -9.972294240485148
      ],
      [
        "▁vehicle",
        -9.972305866383284
      ],
      [
        "▁vote",
        -9.972505672962889
      ],
      [
        "▁Johnson",
        -9.97377156892706
      ],
      [
        "nel",
        -9.974441197967877
      ],
      [
        "▁compose",
        -9.976205330024387
      ],
      [
        "▁51",
        -9.977609980171815
      ],
      [
        "▁surrounding",
        -9.978634771976608
      ],
      [
        "bam",
        -9.978923042615017
      ],
      [
        "▁hospital",
        -9.979146563382137
      ],
      [
        "▁square",
        -9.979190234691657
      ],
      [
        "▁appeal",
        -9.979190243324634
      ],
      [
        "▁soundtrack",
        -9.979195192551432
      ],
      [
        "▁Little",
        -9.979205852249846
      ],
      [
        "▁task",
        -9.979315842791419
      ],
      [
        "▁Home",
        -9.979348990410418
      ],
      [
        "▁Khan",
        -9.98004283134567
      ],
      [
        "▁sport",
        -9.981845858487425
      ],
      [
        "▁52",
        -9.982856225178711
      ],
      [
        "▁cultural",
        -9.983385621163066
      ],
      [
        "▁canno",
        -9.983991127880294
      ],
      [
        "▁organize",
        -9.98406856934989
      ],
      [
        "▁rough",
        -9.984932717238387
      ],
      [
        "▁los",
        -9.984943386722957
      ],
      [
        "▁fiction",
        -9.98516171279663
      ],
      [
        "▁simpl",
        -9.985333808403567
      ],
      [
        "▁primari",
        -9.985718062970445
      ],
      [
        "tons",
        -9.98590857148983
      ],
      [
        "▁Portugues",
        -9.986134674675196
      ],
      [
        "▁volume",
        -9.98613476279876
      ],
      [
        "▁thousand",
        -9.98613616660234
      ],
      [
        "▁Edward",
        -9.986180031090331
      ],
      [
        "▁officer",
        -9.986251347400177
      ],
      [
        "▁offensive",
        -9.987709036323484
      ],
      [
        "▁transferr",
        -9.988355757496098
      ],
      [
        "▁intens",
        -9.98860502825655
      ],
      [
        "expected",
        -9.988746738601403
      ],
      [
        "▁Atlant",
        -9.991185481173737
      ],
      [
        "▁thick",
        -9.991954345360362
      ],
      [
        "▁Captain",
        -9.993127702999043
      ],
      [
        "▁bar",
        -9.99316721235828
      ],
      [
        "▁push",
        -9.993231579398753
      ],
      [
        "ell",
        -9.9951703281749
      ],
      [
        "▁winter",
        -9.99638494221649
      ],
      [
        "▁Peron",
        -9.996856225185226
      ],
      [
        "▁engage",
        -9.9972207757871
      ],
      [
        "▁secure",
        -9.997642540247499
      ],
      [
        "▁Fey",
        -9.998321305935814
      ],
      [
        "▁colour",
        -9.998358659879553
      ],
      [
        "▁twent",
        -9.999297470895659
      ],
      [
        "stream",
        -9.999579947438004
      ],
      [
        "▁infantry",
        -10.00021953906053
      ],
      [
        "▁Civil",
        -10.000221445948139
      ],
      [
        "▁Spain",
        -10.000286229585225
      ],
      [
        "▁Though",
        -10.000322025316937
      ],
      [
        "▁Apple",
        -10.000642976224611
      ],
      [
        "▁prominent",
        -10.00078399477836
      ],
      [
        "▁respond",
        -10.001042043099531
      ],
      [
        "▁Ala",
        -10.00168390116266
      ],
      [
        "▁Can",
        -10.003103510167133
      ],
      [
        "▁independent",
        -10.003103764496185
      ],
      [
        "▁contrast",
        -10.003755083961575
      ],
      [
        "wise",
        -10.004585458981548
      ],
      [
        "▁compare",
        -10.004872632865299
      ],
      [
        "▁composition",
        -10.005569801860517
      ],
      [
        "▁hero",
        -10.005871233854016
      ],
      [
        "▁Mr",
        -10.007251688012307
      ],
      [
        "▁session",
        -10.007263069315158
      ],
      [
        "▁Mountain",
        -10.00737015896054
      ],
      [
        "▁refuse",
        -10.008128764880057
      ],
      [
        "▁hair",
        -10.008827395976597
      ],
      [
        "▁Group",
        -10.009118580975311
      ],
      [
        "▁181",
        -10.009281704002714
      ],
      [
        "▁remov",
        -10.009650959055925
      ],
      [
        "ski",
        -10.009953499186224
      ],
      [
        "▁bad",
        -10.0104761279708
      ],
      [
        "▁object",
        -10.013688906153
      ],
      [
        "▁Balti",
        -10.013892131909056
      ],
      [
        "▁Welsh",
        -10.014405164269757
      ],
      [
        "▁Tintin",
        -10.014405923096332
      ],
      [
        "▁reign",
        -10.014425257990219
      ],
      [
        "▁extensive",
        -10.015102084155938
      ],
      [
        "▁films",
        -10.016193135029757
      ],
      [
        "▁draft",
        -10.017300202875855
      ],
      [
        "▁sex",
        -10.018087210850911
      ],
      [
        "▁Gold",
        -10.01809172441235
      ],
      [
        "dom",
        -10.01835230256452
      ],
      [
        "▁portray",
        -10.020372291215939
      ],
      [
        "▁science",
        -10.020618556783505
      ],
      [
        "white",
        -10.020993392594178
      ],
      [
        "▁Empire",
        -10.021599235551223
      ],
      [
        "▁retain",
        -10.021609309143177
      ],
      [
        "▁window",
        -10.021630714410218
      ],
      [
        "inches",
        -10.021680083967347
      ],
      [
        "▁memor",
        -10.021909804597751
      ],
      [
        "▁sales",
        -10.022848615984248
      ],
      [
        "▁180",
        -10.022881670999624
      ],
      [
        "▁Ceres",
        -10.023157277532306
      ],
      [
        "▁hands",
        -10.023602871746238
      ],
      [
        "▁Lord",
        -10.023606643740273
      ],
      [
        "▁Li",
        -10.024012868014868
      ],
      [
        "craft",
        -10.024427218156402
      ],
      [
        "▁nest",
        -10.024454073984387
      ],
      [
        "▁tracks",
        -10.02506138500273
      ],
      [
        "▁county",
        -10.026345416080492
      ],
      [
        "▁threat",
        -10.027320543446308
      ],
      [
        "▁fast",
        -10.027637653165844
      ],
      [
        "▁archaeolog",
        -10.028758569394657
      ],
      [
        "▁succeed",
        -10.028845899056389
      ],
      [
        "▁Nesbitt",
        -10.028862791813893
      ],
      [
        "▁northwest",
        -10.028884626415724
      ],
      [
        "▁Lock",
        -10.028900410451449
      ],
      [
        "▁assist",
        -10.029169268023459
      ],
      [
        "▁description",
        -10.029280430088637
      ],
      [
        "▁mile",
        -10.029365617986231
      ],
      [
        "▁Polis",
        -10.029460036315538
      ],
      [
        "▁Eva",
        -10.032036360407986
      ],
      [
        "▁Not",
        -10.032366061979323
      ],
      [
        "▁reviewer",
        -10.033198053328917
      ],
      [
        "▁Pop",
        -10.034465133707718
      ],
      [
        "▁function",
        -10.03478925211807
      ],
      [
        "▁Mik",
        -10.03526160699119
      ],
      [
        "▁Odaenath",
        -10.036144883967069
      ],
      [
        "▁captain",
        -10.03614553663551
      ],
      [
        "▁domestic",
        -10.036146331122339
      ],
      [
        "▁Sarnia",
        -10.036155812433627
      ],
      [
        "▁ancien",
        -10.036325959674759
      ],
      [
        "T",
        -10.037376980692414
      ],
      [
        "▁sustain",
        -10.038049379787903
      ],
      [
        "▁computer",
        -10.03826396666183
      ],
      [
        "▁Varan",
        -10.038947591287021
      ],
      [
        "ating",
        -10.039793240871141
      ],
      [
        "▁acid",
        -10.040248057216097
      ],
      [
        "▁182",
        -10.040859847595804
      ],
      [
        "▁Israel",
        -10.040914586399204
      ],
      [
        "▁Zho",
        -10.042108656658495
      ],
      [
        "▁Or",
        -10.042629030931703
      ],
      [
        "▁wind",
        -10.04304927761033
      ],
      [
        "▁except",
        -10.043236633832098
      ],
      [
        "▁pilot",
        -10.043497978718467
      ],
      [
        "▁risk",
        -10.043502011410506
      ],
      [
        "▁kakapo",
        -10.043503559630523
      ],
      [
        "▁narrow",
        -10.043597066794284
      ],
      [
        "▁Master",
        -10.043688529621488
      ],
      [
        "▁store",
        -10.044215497558948
      ],
      [
        "▁basi",
        -10.04436444488765
      ],
      [
        "▁Torre",
        -10.04479753746407
      ],
      [
        "▁wear",
        -10.047581065596479
      ],
      [
        "▁Easter",
        -10.050830772386345
      ],
      [
        "▁economic",
        -10.050837925954479
      ],
      [
        "▁championship",
        -10.050983811802018
      ],
      [
        "▁Engineer",
        -10.051022530965572
      ],
      [
        "▁agent",
        -10.051100448379074
      ],
      [
        "▁Wash",
        -10.051170630594774
      ],
      [
        "▁Manch",
        -10.052031348502798
      ],
      [
        "▁Stone",
        -10.052173783324132
      ],
      [
        "▁1920",
        -10.052668994620461
      ],
      [
        "▁Free",
        -10.052774502713435
      ],
      [
        "▁Sara",
        -10.053207655144586
      ],
      [
        "▁Illinois",
        -10.053437835544837
      ],
      [
        "▁discuss",
        -10.056066733844727
      ],
      [
        "port",
        -10.057868537543193
      ],
      [
        "▁Simpson",
        -10.058380416582269
      ],
      [
        "▁entrance",
        -10.058419293381199
      ],
      [
        "▁inter",
        -10.059858053712844
      ],
      [
        "▁alone",
        -10.059999410509029
      ],
      [
        "kovic",
        -10.060209571589583
      ],
      [
        "over",
        -10.06189138150915
      ],
      [
        "ka",
        -10.062391078528286
      ],
      [
        "▁viewers",
        -10.06242187911273
      ],
      [
        "▁Del",
        -10.062675463640328
      ],
      [
        "▁recognize",
        -10.064263772845134
      ],
      [
        "▁Ocean",
        -10.065220410527639
      ],
      [
        "▁Wilhelm",
        -10.065886713141905
      ],
      [
        "▁Thunderbird",
        -10.065887201259624
      ],
      [
        "▁yellow",
        -10.065887408616327
      ],
      [
        "▁apparent",
        -10.065887775335042
      ],
      [
        "▁chapter",
        -10.065903584999248
      ],
      [
        "▁Week",
        -10.065947321791779
      ],
      [
        "▁item",
        -10.066100780474239
      ],
      [
        "▁Mean",
        -10.067069647924637
      ],
      [
        "9th",
        -10.067562210176867
      ],
      [
        "▁Book",
        -10.06835762608479
      ],
      [
        "▁pop",
        -10.068757802053847
      ],
      [
        "▁phase",
        -10.070422467087695
      ],
      [
        "▁standing",
        -10.0732543089138
      ],
      [
        "▁involv",
        -10.07331452857131
      ],
      [
        "▁More",
        -10.073407650923592
      ],
      [
        "▁divide",
        -10.073425329178715
      ],
      [
        "▁monument",
        -10.073462501086382
      ],
      [
        "▁cadmi",
        -10.07346317735077
      ],
      [
        "▁convert",
        -10.073463316076522
      ],
      [
        "▁opponent",
        -10.073466638625442
      ],
      [
        "▁habitat",
        -10.073992182446638
      ],
      [
        "▁delay",
        -10.074144781353425
      ],
      [
        "▁happen",
        -10.07440280654576
      ],
      [
        "▁partial",
        -10.074644918967277
      ],
      [
        "▁maximu",
        -10.07471798029989
      ],
      [
        "▁survive",
        -10.07531234873033
      ],
      [
        "▁secret",
        -10.076073755872008
      ],
      [
        "▁Bowl",
        -10.076244374094031
      ],
      [
        "▁gre",
        -10.076607678840093
      ],
      [
        "▁Town",
        -10.076952272768416
      ],
      [
        "▁earn",
        -10.077844408663921
      ],
      [
        "▁18th",
        -10.077847099108215
      ],
      [
        "▁feeling",
        -10.078071894760438
      ],
      [
        "eception",
        -10.078147714426784
      ],
      [
        "▁jump",
        -10.078303185338093
      ],
      [
        "▁Art",
        -10.08002990199314
      ],
      [
        "▁transit",
        -10.080122760255302
      ],
      [
        "▁Omaha",
        -10.081096195175308
      ],
      [
        "▁contact",
        -10.081104032916391
      ],
      [
        "▁combat",
        -10.08120810647478
      ],
      [
        "▁inning",
        -10.08123863603269
      ],
      [
        "zy",
        -10.085933475235489
      ],
      [
        "▁Ever",
        -10.08622970521811
      ],
      [
        "board",
        -10.087948346134151
      ],
      [
        "▁Bob",
        -10.087963682605082
      ],
      [
        "▁necessar",
        -10.088788368373454
      ],
      [
        "▁pattern",
        -10.088788459944077
      ],
      [
        "▁Joseph",
        -10.088794145956712
      ],
      [
        "▁flank",
        -10.088805985640596
      ],
      [
        "▁rainfall",
        -10.088824071730995
      ],
      [
        "▁failure",
        -10.08890442645961
      ],
      [
        "▁Martin",
        -10.08893060771356
      ],
      [
        "▁Mogadish",
        -10.089688895272452
      ],
      [
        "▁path",
        -10.089713104507819
      ],
      [
        "▁34",
        -10.089773837427316
      ],
      [
        "▁Common",
        -10.090806438311326
      ],
      [
        "▁stop",
        -10.090920336292115
      ],
      [
        "▁rescue",
        -10.093092851634918
      ],
      [
        "▁identifie",
        -10.094086042029412
      ],
      [
        "▁progress",
        -10.094126164328223
      ],
      [
        "▁energ",
        -10.094542963839956
      ],
      [
        "almos",
        -10.094648813766044
      ],
      [
        "▁SR",
        -10.095026750392433
      ],
      [
        "older",
        -10.095457211858822
      ],
      [
        "▁attract",
        -10.096095919875072
      ],
      [
        "▁sets",
        -10.096374934642313
      ],
      [
        "▁Fleet",
        -10.096540475565424
      ],
      [
        "▁starling",
        -10.096705605248466
      ],
      [
        "▁nominate",
        -10.097503965716045
      ],
      [
        "▁master",
        -10.098872422174203
      ],
      [
        "shore",
        -10.098993195765669
      ],
      [
        "▁possibl",
        -10.099239867037017
      ],
      [
        "▁Dot",
        -10.100092581669006
      ],
      [
        "hann",
        -10.100890139099077
      ],
      [
        "▁onto",
        -10.102813165067069
      ],
      [
        "▁declare",
        -10.103008718973928
      ],
      [
        "▁Assembl",
        -10.10435281007436
      ],
      [
        "▁chief",
        -10.104368261595104
      ],
      [
        "▁guest",
        -10.104391968508796
      ],
      [
        "lin",
        -10.104941537199785
      ],
      [
        "▁Innis",
        -10.105172629991268
      ],
      [
        "▁pai",
        -10.105174995156558
      ],
      [
        "▁rear",
        -10.105743613958468
      ],
      [
        "▁society",
        -10.106611743616043
      ],
      [
        "up",
        -10.107286188904457
      ],
      [
        "hood",
        -10.107683547602152
      ],
      [
        "▁Go",
        -10.10787331899064
      ],
      [
        "▁label",
        -10.107994390827168
      ],
      [
        "ong",
        -10.109418710701997
      ],
      [
        "▁your",
        -10.109562977509386
      ],
      [
        "▁49",
        -10.111966258204617
      ],
      [
        "▁athlete",
        -10.112226858967954
      ],
      [
        "▁McCall",
        -10.11227056480854
      ],
      [
        "▁Airport",
        -10.112298404498883
      ],
      [
        "▁Kent",
        -10.112946546781146
      ],
      [
        "▁district",
        -10.11375524986719
      ],
      [
        "kare",
        -10.113860996701018
      ],
      [
        "no",
        -10.113989960339111
      ],
      [
        "ler",
        -10.114278630842282
      ],
      [
        "▁stand",
        -10.115621890648981
      ],
      [
        "▁institution",
        -10.11568639114101
      ],
      [
        "▁royal",
        -10.115903883732116
      ],
      [
        "ng",
        -10.117889229702055
      ],
      [
        "▁Wi",
        -10.118431884217582
      ],
      [
        "kept",
        -10.119857393777249
      ],
      [
        "▁religion",
        -10.120163328032362
      ],
      [
        "▁unique",
        -10.120239996237409
      ],
      [
        "▁storyline",
        -10.12075759648727
      ],
      [
        "▁Cole",
        -10.1209481941452
      ],
      [
        "▁Andrew",
        -10.12258656495726
      ],
      [
        "▁compar",
        -10.122828841004214
      ],
      [
        "▁student",
        -10.125158144851003
      ],
      [
        "▁semi",
        -10.126205789804905
      ],
      [
        "eval",
        -10.126299026676708
      ],
      [
        "▁occupie",
        -10.126434691376783
      ],
      [
        "back",
        -10.126802698923292
      ],
      [
        "▁occasional",
        -10.126827550093655
      ],
      [
        "▁Forest",
        -10.12731574362629
      ],
      [
        "▁care",
        -10.127350463539699
      ],
      [
        "▁withdraw",
        -10.127430782562714
      ],
      [
        "▁spread",
        -10.127817478607462
      ],
      [
        "▁PlayStation",
        -10.12816332799349
      ],
      [
        "▁Jupiter",
        -10.12816332843103
      ],
      [
        "▁characteristic",
        -10.128359735750323
      ],
      [
        "▁core",
        -10.130496205484924
      ],
      [
        "me",
        -10.131900695405854
      ],
      [
        "▁dut",
        -10.132046941512323
      ],
      [
        "▁48",
        -10.132339965648036
      ],
      [
        "ux",
        -10.135395056878735
      ],
      [
        "▁equip",
        -10.135714512811706
      ],
      [
        "twic",
        -10.136112122480565
      ],
      [
        "▁compound",
        -10.136227844091561
      ],
      [
        "▁depth",
        -10.136229498393964
      ],
      [
        "▁Valley",
        -10.136760087325758
      ],
      [
        "▁comic",
        -10.137079877577298
      ],
      [
        "▁challenge",
        -10.137625392146532
      ],
      [
        "▁occurr",
        -10.13797656862491
      ],
      [
        "▁hope",
        -10.138526344436741
      ],
      [
        "▁heart",
        -10.13986823448895
      ],
      [
        "kg",
        -10.139986325422658
      ],
      [
        "▁acre",
        -10.140452889293215
      ],
      [
        "▁37",
        -10.140927525859738
      ],
      [
        "▁board",
        -10.141108563100492
      ],
      [
        "▁55",
        -10.142435626746964
      ],
      [
        "▁product",
        -10.142665584572985
      ],
      [
        "▁multi",
        -10.144172519874727
      ],
      [
        "▁consecutive",
        -10.14435792517292
      ],
      [
        "▁floor",
        -10.144360609972276
      ],
      [
        "▁Djed",
        -10.14436164452766
      ],
      [
        "▁nomination",
        -10.144396833430244
      ],
      [
        "delphi",
        -10.14441820217505
      ],
      [
        "▁Greek",
        -10.144419313364342
      ],
      [
        "▁Four",
        -10.144575417392225
      ],
      [
        "▁adopt",
        -10.144724787109652
      ],
      [
        "▁fung",
        -10.145309802217303
      ],
      [
        "▁orbit",
        -10.14553286848375
      ],
      [
        "stone",
        -10.146762692737243
      ],
      [
        "▁Line",
        -10.148224083462205
      ],
      [
        "▁doing",
        -10.14836835360429
      ],
      [
        "▁museum",
        -10.149282622105744
      ],
      [
        "▁lane",
        -10.1519575814171
      ],
      [
        "▁Cra",
        -10.152440926268032
      ],
      [
        "▁vessel",
        -10.152556159493837
      ],
      [
        "▁DVD",
        -10.152562240278098
      ],
      [
        "▁negative",
        -10.152626578087927
      ],
      [
        "▁permanent",
        -10.15281658663013
      ],
      [
        "▁oil",
        -10.153018690083428
      ],
      [
        "▁fish",
        -10.153305887819677
      ],
      [
        "▁Char",
        -10.15472294176634
      ],
      [
        "▁castle",
        -10.155066197840153
      ],
      [
        "▁armor",
        -10.155916870739834
      ],
      [
        "▁Big",
        -10.156344924879837
      ],
      [
        "▁block",
        -10.156616258886878
      ],
      [
        "rang",
        -10.157695300764018
      ],
      [
        "▁desire",
        -10.158469215266257
      ],
      [
        "▁chance",
        -10.158543327752598
      ],
      [
        "O",
        -10.15898199029599
      ],
      [
        "▁hop",
        -10.160042094957818
      ],
      [
        "ma",
        -10.16026101003105
      ],
      [
        "▁obtain",
        -10.160819111138528
      ],
      [
        "▁opinion",
        -10.16084033522862
      ],
      [
        "▁airport",
        -10.160993178855623
      ],
      [
        "▁creation",
        -10.161247503255826
      ],
      [
        "▁Dam",
        -10.162678119283719
      ],
      [
        "▁origin",
        -10.163260561382828
      ],
      [
        "600",
        -10.164798119264113
      ],
      [
        "▁weight",
        -10.165901382481193
      ],
      [
        "▁Due",
        -10.166106311511948
      ],
      [
        "▁Bir",
        -10.16713568189562
      ],
      [
        "▁unknow",
        -10.168126605915464
      ],
      [
        "▁height",
        -10.16849696129877
      ],
      [
        "▁securit",
        -10.168519671616728
      ],
      [
        "▁respect",
        -10.168889318106638
      ],
      [
        "▁Institute",
        -10.16915244266264
      ],
      [
        "▁Science",
        -10.169154254549387
      ],
      [
        "▁executive",
        -10.169193071876728
      ],
      [
        "▁else",
        -10.169255885659709
      ],
      [
        "▁iron",
        -10.169291524370703
      ],
      [
        "▁Child",
        -10.169943425389086
      ],
      [
        "▁threaten",
        -10.170983604608924
      ],
      [
        "▁120",
        -10.171360697964987
      ],
      [
        "▁greates",
        -10.172024058647587
      ],
      [
        "▁serv",
        -10.172640960958681
      ],
      [
        "▁spring",
        -10.172781806906393
      ],
      [
        "▁buri",
        -10.17368175972161
      ],
      [
        "▁Ke",
        -10.176989183459757
      ],
      [
        "▁encounter",
        -10.17755926203247
      ],
      [
        "▁civil",
        -10.1776214109533
      ],
      [
        "borough",
        -10.17764651905474
      ],
      [
        "ger",
        -10.179626640189348
      ],
      [
        "laid",
        -10.179836039207581
      ],
      [
        "burn",
        -10.18151259549516
      ],
      [
        "▁seek",
        -10.182035003668446
      ],
      [
        "ge",
        -10.183898383705056
      ],
      [
        "▁SAFE",
        -10.186030457698575
      ],
      [
        "▁BBC",
        -10.18637652903837
      ],
      [
        "▁J.",
        -10.187079969434796
      ],
      [
        "▁types",
        -10.188868356382345
      ],
      [
        "fall",
        -10.189008720354852
      ],
      [
        "▁ceremon",
        -10.191885003132974
      ],
      [
        "▁wild",
        -10.192164633591426
      ],
      [
        "▁bowl",
        -10.19262290507159
      ],
      [
        "growth",
        -10.1933858923354
      ],
      [
        "▁visual",
        -10.194169592447324
      ],
      [
        "▁knowledge",
        -10.194580102854456
      ],
      [
        "▁Minister",
        -10.194606692353968
      ],
      [
        "▁association",
        -10.194609595546474
      ],
      [
        "▁invasion",
        -10.194878941162717
      ],
      [
        "▁weather",
        -10.195017811207055
      ],
      [
        "▁refer",
        -10.195235154595768
      ],
      [
        "▁Michi",
        -10.19534582110253
      ],
      [
        "tried",
        -10.195379528181249
      ],
      [
        "▁inch",
        -10.196642862859157
      ],
      [
        "hi",
        -10.197797862170521
      ],
      [
        "▁dedicate",
        -10.19824002632095
      ],
      [
        "▁fear",
        -10.198621390113164
      ],
      [
        "▁analysi",
        -10.20043644350374
      ],
      [
        "▁Croatia",
        -10.200706864318374
      ],
      [
        "▁bid",
        -10.201376614060074
      ],
      [
        "ble",
        -10.20221012625089
      ],
      [
        "▁tank",
        -10.202218806571311
      ],
      [
        "▁raid",
        -10.202490615186314
      ],
      [
        "▁council",
        -10.203191007409071
      ],
      [
        "▁famous",
        -10.203204500438208
      ],
      [
        "▁sculpture",
        -10.203205638097057
      ],
      [
        "▁Further",
        -10.203287590435298
      ],
      [
        "▁Mo",
        -10.20359424394511
      ],
      [
        "▁freeway",
        -10.203612940642746
      ],
      [
        "▁treatment",
        -10.203714619405394
      ],
      [
        "▁miner",
        -10.203754339406558
      ],
      [
        "▁finding",
        -10.204018421035475
      ],
      [
        "▁Jain",
        -10.204058209072564
      ],
      [
        "▁campus",
        -10.204349050687021
      ],
      [
        "▁feed",
        -10.204554829637617
      ],
      [
        "▁Ali",
        -10.204740103275832
      ],
      [
        "▁peace",
        -10.204815371478812
      ],
      [
        "diff",
        -10.205544343897412
      ],
      [
        "▁statement",
        -10.206191902677991
      ],
      [
        "▁End",
        -10.206716289419976
      ],
      [
        "▁Abu",
        -10.209684914888737
      ],
      [
        "venue",
        -10.209913436503093
      ],
      [
        "▁perfect",
        -10.211799879267438
      ],
      [
        "▁Video",
        -10.212012794295994
      ],
      [
        "▁fox",
        -10.212013099385494
      ],
      [
        "ko",
        -10.212068665155991
      ],
      [
        "HMS",
        -10.212241513144118
      ],
      [
        "▁teacher",
        -10.212952125036006
      ],
      [
        "▁spot",
        -10.21351359034313
      ],
      [
        "▁designate",
        -10.213605494491798
      ],
      [
        "▁attribute",
        -10.213758379175504
      ],
      [
        "▁teaching",
        -10.21520200699415
      ],
      [
        "▁Tenn",
        -10.215681259698343
      ],
      [
        "▁technolog",
        -10.216952586318296
      ],
      [
        "▁channel",
        -10.217122734529138
      ],
      [
        "1987",
        -10.218074993580345
      ],
      [
        "▁depend",
        -10.218218127346365
      ],
      [
        "panish",
        -10.218271117950023
      ],
      [
        "▁instrument",
        -10.219431642505981
      ],
      [
        "▁Way",
        -10.219697398415015
      ],
      [
        "▁trip",
        -10.22047565509395
      ],
      [
        "▁recall",
        -10.220666534318159
      ],
      [
        "▁Phila",
        -10.220792293816308
      ],
      [
        "▁Barrow",
        -10.22088468078787
      ],
      [
        "▁destroyer",
        -10.22133359891033
      ],
      [
        "▁struggle",
        -10.221592080082498
      ],
      [
        "▁kille",
        -10.222083498595143
      ],
      [
        "▁shift",
        -10.224722296429745
      ],
      [
        "▁65",
        -10.225059610188662
      ],
      [
        "▁Even",
        -10.226256524059453
      ],
      [
        "▁mouth",
        -10.226490875132441
      ],
      [
        "▁64",
        -10.227662381274659
      ],
      [
        "▁Jim",
        -10.228084914621345
      ],
      [
        "▁dropp",
        -10.228607724273347
      ],
      [
        "▁federal",
        -10.229515291589927
      ],
      [
        "▁Congress",
        -10.229515690660271
      ],
      [
        "▁arrest",
        -10.229518038573556
      ],
      [
        "▁gradual",
        -10.229527709875116
      ],
      [
        "▁Keats",
        -10.229581305373198
      ],
      [
        "▁landfall",
        -10.229596545836007
      ],
      [
        "▁Premier",
        -10.230024877096671
      ],
      [
        "▁criticism",
        -10.230142025403648
      ],
      [
        "▁killing",
        -10.23128063718535
      ],
      [
        "▁Gord",
        -10.232291276227492
      ],
      [
        "▁spend",
        -10.233040840595029
      ],
      [
        "▁Never",
        -10.233096732050182
      ],
      [
        "water",
        -10.233879884352387
      ],
      [
        "▁editor",
        -10.236447403461558
      ],
      [
        "▁Bridge",
        -10.237692753537504
      ],
      [
        "▁supplie",
        -10.237979451378234
      ],
      [
        "▁drum",
        -10.238412354632253
      ],
      [
        "▁kilometre",
        -10.238443790717978
      ],
      [
        "▁possibilit",
        -10.238444388468887
      ],
      [
        "▁Morris",
        -10.238514141676816
      ],
      [
        "▁civilian",
        -10.238549636031543
      ],
      [
        "▁strengthen",
        -10.240761932152106
      ],
      [
        "▁big",
        -10.241218121239271
      ],
      [
        "▁foundation",
        -10.241901977752276
      ],
      [
        "▁surviv",
        -10.243863518819383
      ],
      [
        "▁firm",
        -10.24407994792235
      ],
      [
        "▁counter",
        -10.24463807539237
      ],
      [
        "▁dance",
        -10.247252202693673
      ],
      [
        "▁Album",
        -10.247453256337398
      ],
      [
        "▁Additional",
        -10.247453515056767
      ],
      [
        "▁Dutch",
        -10.247453654577736
      ],
      [
        "▁budget",
        -10.247511002551857
      ],
      [
        "▁multiple",
        -10.24765108791221
      ],
      [
        "▁divine",
        -10.248104649377009
      ],
      [
        "▁solo",
        -10.248294425080093
      ],
      [
        "▁S.",
        -10.248609505776205
      ],
      [
        "▁agreement",
        -10.248681016100358
      ],
      [
        "▁Max",
        -10.24871050953639
      ],
      [
        "abilit",
        -10.249410079416513
      ],
      [
        "▁sides",
        -10.251317338189564
      ],
      [
        "▁'m",
        -10.251526095222648
      ],
      [
        "▁Good",
        -10.251695204794611
      ],
      [
        "▁Steve",
        -10.253177756545213
      ],
      [
        "▁53",
        -10.253249950223298
      ],
      [
        "ackground",
        -10.25613088493867
      ],
      [
        "▁Festival",
        -10.256543750066733
      ],
      [
        "▁belief",
        -10.25655509243391
      ],
      [
        "▁Nathan",
        -10.25655521081966
      ],
      [
        "▁actress",
        -10.256555247482947
      ],
      [
        "▁connection",
        -10.257037867187188
      ],
      [
        "sey",
        -10.257372946855591
      ],
      [
        "▁formation",
        -10.259370438971565
      ],
      [
        "▁newly",
        -10.260707040310841
      ],
      [
        "▁pro",
        -10.260928395782967
      ],
      [
        "▁foreign",
        -10.261521712094144
      ],
      [
        "▁debate",
        -10.26342969646349
      ],
      [
        "▁kick",
        -10.263449391222672
      ],
      [
        "▁lives",
        -10.264203858476002
      ],
      [
        "ling",
        -10.264526450278312
      ],
      [
        "sses",
        -10.26453236268533
      ],
      [
        "▁college",
        -10.26571802980758
      ],
      [
        "▁data",
        -10.265926308110952
      ],
      [
        "▁observation",
        -10.265944371762401
      ],
      [
        "▁Heart",
        -10.266038318433374
      ],
      [
        "spread",
        -10.266163446963958
      ],
      [
        "im",
        -10.266229874205676
      ],
      [
        "▁Roll",
        -10.266233192133576
      ],
      [
        "M",
        -10.26820545685638
      ],
      [
        "▁silver",
        -10.26830667602243
      ],
      [
        "▁occurre",
        -10.271477547254614
      ],
      [
        "▁Ben",
        -10.272553589376415
      ],
      [
        "onference",
        -10.27307209918635
      ],
      [
        "▁suffer",
        -10.27430479038274
      ],
      [
        "▁zone",
        -10.274946857353035
      ],
      [
        "▁nucleus",
        -10.274977278680726
      ],
      [
        "▁restaurant",
        -10.274977427408063
      ],
      [
        "▁Revolution",
        -10.274985070733713
      ],
      [
        "▁excavation",
        -10.27500365908655
      ],
      [
        "▁highlight",
        -10.275141011136139
      ],
      [
        "▁arrangement",
        -10.275233642689042
      ],
      [
        "▁Ranger",
        -10.27527912563936
      ],
      [
        "▁candidate",
        -10.275292831859625
      ],
      [
        "▁Ode",
        -10.275394299971776
      ],
      [
        "▁Haven",
        -10.276873132788731
      ],
      [
        "▁Original",
        -10.278753879861146
      ],
      [
        "theles",
        -10.280544184861599
      ],
      [
        "▁fac",
        -10.281178971256615
      ],
      [
        "▁rail",
        -10.281675921813719
      ],
      [
        "▁Slam",
        -10.282239663815695
      ],
      [
        "▁participate",
        -10.282413429892282
      ],
      [
        "▁clean",
        -10.282427515181986
      ],
      [
        "ular",
        -10.282573471927549
      ],
      [
        "▁dai",
        -10.284238856971301
      ],
      [
        "▁straight",
        -10.284322427457338
      ],
      [
        "▁victim",
        -10.284323075364451
      ],
      [
        "▁Gulf",
        -10.284367426032851
      ],
      [
        "▁inscription",
        -10.284549764508156
      ],
      [
        "▁note",
        -10.28465104658411
      ],
      [
        "▁Lewis",
        -10.284838747810646
      ],
      [
        "▁repair",
        -10.285399259282537
      ],
      [
        "▁simple",
        -10.286542240549043
      ],
      [
        "▁contribute",
        -10.287293663184132
      ],
      [
        "▁130",
        -10.288927635703226
      ],
      [
        "▁prepared",
        -10.290323130313983
      ],
      [
        "▁transfer",
        -10.291428437408566
      ],
      [
        "▁difference",
        -10.291558867275043
      ],
      [
        "▁recommend",
        -10.293486006582
      ],
      [
        "▁Cardinal",
        -10.293757307612136
      ],
      [
        "▁Production",
        -10.293776202216835
      ],
      [
        "▁Among",
        -10.293801017279268
      ],
      [
        "▁combination",
        -10.293822005464861
      ],
      [
        "▁crime",
        -10.293872679266261
      ],
      [
        "▁option",
        -10.294034209032166
      ],
      [
        "▁passage",
        -10.294743989383736
      ],
      [
        "▁setting",
        -10.295000157328557
      ],
      [
        "ke",
        -10.29505169641458
      ],
      [
        "▁arriv",
        -10.295747505718635
      ],
      [
        "▁Temple",
        -10.295799147415709
      ],
      [
        "▁aim",
        -10.295924719882919
      ],
      [
        "▁41",
        -10.296303989899627
      ],
      [
        "▁BC",
        -10.297247864151839
      ],
      [
        "▁Mor",
        -10.297253261492532
      ],
      [
        "▁hire",
        -10.297417079300736
      ],
      [
        "▁57",
        -10.297703587669028
      ],
      [
        "▁Bo",
        -10.297781189456444
      ],
      [
        "▁USA",
        -10.299331106742514
      ],
      [
        "▁b",
        -10.301827963221498
      ],
      [
        "▁incident",
        -10.302224373220493
      ],
      [
        "▁People",
        -10.303280874925704
      ],
      [
        "▁article",
        -10.303282074530857
      ],
      [
        "▁Oxford",
        -10.303299891191742
      ],
      [
        "▁Entertainment",
        -10.303352071101118
      ],
      [
        "▁Turner",
        -10.303547739973803
      ],
      [
        "▁Coast",
        -10.303698147664075
      ],
      [
        "▁Russian",
        -10.304617803395917
      ],
      [
        "▁56",
        -10.305421907859078
      ],
      [
        "▁Der",
        -10.305739792289387
      ],
      [
        "▁43",
        -10.305977099031704
      ],
      [
        "▁700",
        -10.307128662843418
      ],
      [
        "▁outer",
        -10.307148799764192
      ],
      [
        "▁fit",
        -10.308060308469482
      ],
      [
        "ring",
        -10.308750080218989
      ],
      [
        "▁Review",
        -10.308829826163489
      ],
      [
        "▁Mario",
        -10.308836345052132
      ],
      [
        "▁Girl",
        -10.308897978859237
      ],
      [
        "▁frame",
        -10.30899689951751
      ],
      [
        "▁sail",
        -10.309342028526974
      ],
      [
        "▁110",
        -10.310210696501997
      ],
      [
        "▁54",
        -10.311511982828758
      ],
      [
        "▁paint",
        -10.312201769280726
      ],
      [
        "▁drama",
        -10.312724815223563
      ],
      [
        "▁hotel",
        -10.313009389060925
      ],
      [
        "▁intersection",
        -10.313036650506405
      ],
      [
        "▁objective",
        -10.313145199530751
      ],
      [
        "▁Fox",
        -10.3132360894153
      ],
      [
        "▁unlike",
        -10.313403093016547
      ],
      [
        "▁Bois",
        -10.313460737028297
      ],
      [
        "▁digital",
        -10.313469833735724
      ],
      [
        "▁Po",
        -10.314090161057635
      ],
      [
        "▁bottom",
        -10.315570248648852
      ],
      [
        "▁super",
        -10.316908413674557
      ],
      [
        "8th",
        -10.316943704124423
      ],
      [
        "▁Field",
        -10.317835085616938
      ],
      [
        "▁rush",
        -10.318103740066384
      ],
      [
        "▁criticize",
        -10.318374066036451
      ],
      [
        "▁premiere",
        -10.318752304469268
      ],
      [
        "▁Joe",
        -10.320238767325591
      ],
      [
        "▁Commission",
        -10.320607335330404
      ],
      [
        "shire",
        -10.321412179670926
      ],
      [
        "▁mixe",
        -10.321550945920276
      ],
      [
        "▁drawing",
        -10.32179769726272
      ],
      [
        "▁skill",
        -10.32217695647098
      ],
      [
        "▁print",
        -10.322473465342078
      ],
      [
        "▁46",
        -10.322504237795659
      ],
      [
        "▁Governor",
        -10.322608961781388
      ],
      [
        "▁Director",
        -10.322790321085588
      ],
      [
        "▁derive",
        -10.323120359829208
      ],
      [
        "ier",
        -10.323165152980376
      ],
      [
        "▁L.",
        -10.32475453872927
      ],
      [
        "▁Lee",
        -10.325021032479075
      ],
      [
        "▁Studios",
        -10.325695059644364
      ],
      [
        "▁supply",
        -10.325749309359235
      ],
      [
        "▁fur",
        -10.32582053556856
      ],
      [
        "▁Ka",
        -10.325901027359036
      ],
      [
        "▁Rome",
        -10.32621814325686
      ],
      [
        "▁assembl",
        -10.326599082211139
      ],
      [
        "▁Bart",
        -10.326884998831797
      ],
      [
        "ner",
        -10.327679471911207
      ],
      [
        "▁reserve",
        -10.327768453258635
      ],
      [
        "▁reduc",
        -10.328309618314048
      ],
      [
        "▁batsm",
        -10.328322054014043
      ],
      [
        "▁formal",
        -10.328982812939547
      ],
      [
        "▁Williams",
        -10.329679269545048
      ],
      [
        "▁Mac",
        -10.331053015873126
      ],
      [
        "ize",
        -10.331480602745518
      ],
      [
        "▁committee",
        -10.331647946646681
      ],
      [
        "▁Out",
        -10.331897907753103
      ],
      [
        "▁Muslim",
        -10.332408891881855
      ],
      [
        "▁expedition",
        -10.332409119243778
      ],
      [
        "▁antimony",
        -10.332409622410623
      ],
      [
        "▁Life",
        -10.33241005252869
      ],
      [
        "▁accompanie",
        -10.332420151089334
      ],
      [
        "▁promise",
        -10.332424536512015
      ],
      [
        "▁genre",
        -10.332443782733097
      ],
      [
        "▁message",
        -10.332453126629087
      ],
      [
        "▁cave",
        -10.332519182193096
      ],
      [
        "▁page",
        -10.332532111680191
      ],
      [
        "▁egg",
        -10.332577454175194
      ],
      [
        "▁penalt",
        -10.332600965715041
      ],
      [
        "▁Juan",
        -10.332927456972968
      ],
      [
        "▁Marl",
        -10.3342134706409
      ],
      [
        "▁Ho",
        -10.33460737584554
      ],
      [
        "▁Bosto",
        -10.334699612519092
      ],
      [
        "▁Mu",
        -10.335594409762757
      ],
      [
        "▁Ed",
        -10.336307486196509
      ],
      [
        "▁800",
        -10.33688909523585
      ],
      [
        "▁southwest",
        -10.337038853695532
      ],
      [
        "▁remark",
        -10.337241688995267
      ],
      [
        "▁boy",
        -10.337269551342697
      ],
      [
        "yond",
        -10.338328697747222
      ],
      [
        "▁verse",
        -10.338928408852743
      ],
      [
        "▁Area",
        -10.33976491955261
      ],
      [
        "▁torpedo",
        -10.340987422124961
      ],
      [
        "▁Allie",
        -10.34112803548549
      ],
      [
        "▁wh",
        -10.34194113414561
      ],
      [
        "▁System",
        -10.342310547431914
      ],
      [
        "▁Evita",
        -10.342314221473021
      ],
      [
        "▁guide",
        -10.342329322019232
      ],
      [
        "▁What",
        -10.34248502139966
      ],
      [
        "▁naval",
        -10.342861657958448
      ],
      [
        "▁hunt",
        -10.343121645181029
      ],
      [
        "▁Crown",
        -10.343193333203551
      ],
      [
        "▁camera",
        -10.343228482442692
      ],
      [
        "▁Magazine",
        -10.343266659594335
      ],
      [
        "▁send",
        -10.343528596770298
      ],
      [
        "▁Con",
        -10.343790942083203
      ],
      [
        "▁Single",
        -10.343844941162104
      ],
      [
        "iro",
        -10.34404884585625
      ],
      [
        "▁Yan",
        -10.3442442026288
      ],
      [
        "▁green",
        -10.344276303959022
      ],
      [
        "▁Player",
        -10.344563939827815
      ],
      [
        "▁suffere",
        -10.34465606758097
      ],
      [
        "worth",
        -10.34524423943521
      ],
      [
        "▁notable",
        -10.345787590495227
      ],
      [
        "▁Bishop",
        -10.34796139382123
      ],
      [
        "▁spore",
        -10.348352410954693
      ],
      [
        "▁winner",
        -10.348462893518334
      ],
      [
        "▁12th",
        -10.348582175206174
      ],
      [
        "▁starr",
        -10.349453079304643
      ],
      [
        "gu",
        -10.351945740001593
      ],
      [
        "▁weak",
        -10.351980018992471
      ],
      [
        "▁technical",
        -10.352342518936652
      ],
      [
        "▁Se",
        -10.352401279846468
      ],
      [
        "▁interaction",
        -10.352425233746464
      ],
      [
        "▁generation",
        -10.352465529851921
      ],
      [
        "▁drain",
        -10.352524881118782
      ],
      [
        "▁favor",
        -10.35300185876839
      ],
      [
        "FA",
        -10.354819384350824
      ],
      [
        "▁medica",
        -10.356329562149806
      ],
      [
        "▁here",
        -10.356419360356284
      ],
      [
        "▁warm",
        -10.356458234716701
      ],
      [
        "▁beach",
        -10.356710184680605
      ],
      [
        "▁policy",
        -10.357769150421728
      ],
      [
        "▁independen",
        -10.358211328068844
      ],
      [
        "▁Liu",
        -10.359118545870025
      ],
      [
        "▁gas",
        -10.359513572907206
      ],
      [
        "istrict",
        -10.360490248035045
      ],
      [
        "▁Toda",
        -10.361195041139633
      ],
      [
        "▁billion",
        -10.36212725532539
      ],
      [
        "▁don",
        -10.36223132591926
      ],
      [
        "▁principal",
        -10.362410889108844
      ],
      [
        "▁mushroom",
        -10.362410889786048
      ],
      [
        "▁retreat",
        -10.36241099995992
      ],
      [
        "▁unusual",
        -10.362446412219011
      ],
      [
        "▁sector",
        -10.362484555978508
      ],
      [
        "▁concret",
        -10.362813403567023
      ],
      [
        "▁wait",
        -10.36321221715836
      ],
      [
        "▁61",
        -10.363773200521186
      ],
      [
        "▁Kang",
        -10.364789075230764
      ],
      [
        "▁reform",
        -10.365798369333897
      ],
      [
        "ated",
        -10.367065545564866
      ],
      [
        "▁branch",
        -10.367337553210257
      ],
      [
        "▁Nin",
        -10.367759403941637
      ],
      [
        "▁dominate",
        -10.369810993016326
      ],
      [
        "ez",
        -10.370059191257155
      ],
      [
        "▁boundar",
        -10.370091837503207
      ],
      [
        "▁motion",
        -10.370249814013745
      ],
      [
        "ization",
        -10.37180350376665
      ],
      [
        "▁Project",
        -10.37261497088582
      ],
      [
        "▁senior",
        -10.372615051354847
      ],
      [
        "▁Jurchen",
        -10.37261618063284
      ],
      [
        "▁Power",
        -10.372724656860184
      ],
      [
        "▁cool",
        -10.373046409548957
      ],
      [
        "▁emperor",
        -10.373095895246369
      ],
      [
        "▁creator",
        -10.373120624006134
      ],
      [
        "▁Theatr",
        -10.37416046670757
      ],
      [
        "▁chang",
        -10.374172151828436
      ],
      [
        "▁bit",
        -10.376511859618368
      ],
      [
        "▁appoint",
        -10.37704776031763
      ],
      [
        "▁preserve",
        -10.378205739193021
      ],
      [
        "▁retire",
        -10.378557094709262
      ],
      [
        "▁Op",
        -10.378600628017248
      ],
      [
        "E",
        -10.380199151756026
      ],
      [
        "▁Recording",
        -10.381132934306011
      ],
      [
        "▁easi",
        -10.381613324035815
      ],
      [
        "▁protagonist",
        -10.382924249093495
      ],
      [
        "▁chorus",
        -10.382925061133223
      ],
      [
        "▁communication",
        -10.382947689204592
      ],
      [
        "▁Board",
        -10.382964516863971
      ],
      [
        "▁Development",
        -10.382970465359216
      ],
      [
        "▁Summer",
        -10.3829954012579
      ],
      [
        "bury",
        -10.383254275321407
      ],
      [
        "▁pull",
        -10.383280864819362
      ],
      [
        "▁arrival",
        -10.38403051309841
      ],
      [
        "▁nothing",
        -10.384538968633166
      ],
      [
        "▁homes",
        -10.384883581980297
      ],
      [
        "▁owner",
        -10.384895337822554
      ],
      [
        "▁160",
        -10.385552734280726
      ],
      [
        "ard",
        -10.386084194232804
      ],
      [
        "▁entr",
        -10.386087467308837
      ],
      [
        "▁choice",
        -10.386440585576661
      ],
      [
        "▁inform",
        -10.386784613354862
      ],
      [
        "▁nor",
        -10.387155215529944
      ],
      [
        "▁prais",
        -10.3872798453452
      ],
      [
        "ang",
        -10.387850273027432
      ],
      [
        "▁GA",
        -10.388132388247652
      ],
      [
        "▁Rio",
        -10.38928857301118
      ],
      [
        "body",
        -10.389561261071592
      ],
      [
        "▁Su",
        -10.389639199615296
      ],
      [
        "▁ritual",
        -10.3901183552806
      ],
      [
        "▁photograph",
        -10.390617170564646
      ],
      [
        "▁strike",
        -10.391761286843945
      ],
      [
        "▁Am",
        -10.392720777215409
      ],
      [
        "▁fresh",
        -10.39273329780564
      ],
      [
        "TC",
        -10.393292117746897
      ],
      [
        "▁vision",
        -10.393346326833818
      ],
      [
        "▁essential",
        -10.393383452144466
      ],
      [
        "▁platform",
        -10.39339317299516
      ],
      [
        "▁Track",
        -10.393763958453775
      ],
      [
        "▁Famil",
        -10.393812318806013
      ],
      [
        "▁soil",
        -10.393866140719528
      ],
      [
        "▁Radio",
        -10.393917477211296
      ],
      [
        "un",
        -10.394296226787024
      ],
      [
        "W",
        -10.394646882189635
      ],
      [
        "onica",
        -10.394796414264007
      ],
      [
        "▁survey",
        -10.394973432281287
      ],
      [
        "▁Baby",
        -10.396412138957698
      ],
      [
        "▁96",
        -10.396471300241434
      ],
      [
        "▁collapse",
        -10.3970198109365
      ],
      [
        "▁Ram",
        -10.399340648794329
      ],
      [
        "▁moral",
        -10.399934490776008
      ],
      [
        "▁define",
        -10.40039114239832
      ],
      [
        "▁con",
        -10.401121424032532
      ],
      [
        "▁Ju",
        -10.401424396202206
      ],
      [
        "▁oppos",
        -10.4020020518902
      ],
      [
        "za",
        -10.402091048615802
      ],
      [
        "▁assume",
        -10.40297692746364
      ],
      [
        "▁guard",
        -10.403109621162919
      ],
      [
        "▁mind",
        -10.403295509251299
      ],
      [
        "▁Egypt",
        -10.403761081133911
      ],
      [
        "#",
        -10.403867231548041
      ],
      [
        "▁MacLeod",
        -10.40386800176748
      ],
      [
        "▁administration",
        -10.403868747199088
      ],
      [
        "▁classifie",
        -10.403880700428141
      ],
      [
        "▁representative",
        -10.403925465568124
      ],
      [
        "▁Inter",
        -10.40411732530517
      ],
      [
        "▁spac",
        -10.404243606016681
      ],
      [
        "▁cruiser",
        -10.404732939415826
      ],
      [
        "yson",
        -10.406021262826835
      ],
      [
        "▁encourage",
        -10.406052304406359
      ],
      [
        "▁skin",
        -10.406279541227672
      ],
      [
        "▁94",
        -10.406411709696897
      ],
      [
        "▁fuel",
        -10.408369315835987
      ],
      [
        "▁Asia",
        -10.408449002444076
      ],
      [
        "▁holding",
        -10.408804116546087
      ],
      [
        "▁MD",
        -10.409787533819184
      ],
      [
        "▁priest",
        -10.410219056625108
      ],
      [
        "▁1936",
        -10.410406961967972
      ],
      [
        "▁Real",
        -10.410963352091898
      ],
      [
        "▁charter",
        -10.411412458411409
      ],
      [
        "▁Wil",
        -10.411551171220221
      ],
      [
        "▁Mega",
        -10.411875962811141
      ],
      [
        "op",
        -10.412254220386394
      ],
      [
        "▁arrange",
        -10.41285984640024
      ],
      [
        "▁biograph",
        -10.412930417583233
      ],
      [
        "▁incorporate",
        -10.413295112057257
      ],
      [
        "▁Ul",
        -10.41383766916286
      ],
      [
        "▁folk",
        -10.414246680459023
      ],
      [
        "▁Admiral",
        -10.414505533635179
      ],
      [
        "▁Athletic",
        -10.414505637366629
      ],
      [
        "▁passenger",
        -10.414506703389172
      ],
      [
        "▁violence",
        -10.414512466123998
      ],
      [
        "glades",
        -10.414683955320843
      ],
      [
        "▁layer",
        -10.414895167238388
      ],
      [
        "▁Anthon",
        -10.416689860115252
      ],
      [
        "▁Ital",
        -10.41712982142134
      ],
      [
        "▁Brook",
        -10.417413633068643
      ],
      [
        "▁rais",
        -10.418089054269524
      ],
      [
        "▁graph",
        -10.418276552069184
      ],
      [
        "▁72",
        -10.418730904005585
      ],
      [
        "▁sole",
        -10.419393765406639
      ],
      [
        "▁shoot",
        -10.42000423754147
      ],
      [
        "j",
        -10.422086481471663
      ],
      [
        "▁H.",
        -10.42217201430998
      ],
      [
        "▁tall",
        -10.422236577126526
      ],
      [
        "▁62",
        -10.422974364210578
      ],
      [
        "ak",
        -10.423205164892547
      ],
      [
        "▁Constantin",
        -10.423397710869654
      ],
      [
        "CE",
        -10.424421487937526
      ],
      [
        "▁parallel",
        -10.42460475741311
      ],
      [
        "▁airline",
        -10.424843526789916
      ],
      [
        "▁province",
        -10.42525822201121
      ],
      [
        "▁Douglas",
        -10.42525838063722
      ],
      [
        "▁atmosphere",
        -10.425258515403659
      ],
      [
        "▁remnant",
        -10.425264332199145
      ],
      [
        "▁earthquake",
        -10.425325062344644
      ],
      [
        "▁possession",
        -10.425430344755327
      ],
      [
        "▁knot",
        -10.425514014555192
      ],
      [
        "▁proposal",
        -10.425525244917855
      ],
      [
        "▁renam",
        -10.425564365785352
      ],
      [
        "▁exclusive",
        -10.425583823600792
      ],
      [
        "▁Walter",
        -10.425682769860515
      ],
      [
        "▁invite",
        -10.426117830667856
      ],
      [
        "▁plays",
        -10.426285569993961
      ],
      [
        "▁fan",
        -10.426319874155155
      ],
      [
        "▁argu",
        -10.42636538842739
      ],
      [
        "off",
        -10.426775807987049
      ],
      [
        "▁basic",
        -10.42677806744448
      ],
      [
        "▁dress",
        -10.426879407624279
      ],
      [
        "▁Bond",
        -10.427190651602661
      ],
      [
        "▁settler",
        -10.427538505097388
      ],
      [
        "▁fashion",
        -10.428078914076565
      ],
      [
        "▁rain",
        -10.42838123942693
      ],
      [
        "▁massive",
        -10.42848574950618
      ],
      [
        "▁Somali",
        -10.428820454197638
      ],
      [
        "▁believ",
        -10.428946498629813
      ],
      [
        "▁restore",
        -10.43005456662986
      ],
      [
        "▁roof",
        -10.430387132724945
      ],
      [
        "Chains",
        -10.430659216240736
      ],
      [
        "ow",
        -10.43143276997338
      ],
      [
        "▁rebel",
        -10.431746223421186
      ],
      [
        "▁Daniel",
        -10.43205302510313
      ],
      [
        "▁broad",
        -10.435536512137611
      ],
      [
        "▁column",
        -10.436037276417286
      ],
      [
        "▁Men",
        -10.436056398646492
      ],
      [
        "▁Committee",
        -10.436127782810427
      ],
      [
        "▁unsuccessful",
        -10.436128119496303
      ],
      [
        "▁Anonymous",
        -10.436129803522896
      ],
      [
        "▁Hornung",
        -10.436131773255738
      ],
      [
        "▁submarine",
        -10.436214136624272
      ],
      [
        "▁protection",
        -10.436711877679427
      ],
      [
        "▁En",
        -10.436852249838362
      ],
      [
        "▁applie",
        -10.436893829587675
      ],
      [
        "▁95",
        -10.436971864399496
      ],
      [
        "▁perhap",
        -10.436987547450084
      ],
      [
        "▁surround",
        -10.437106758232787
      ],
      [
        "▁earne",
        -10.43777558034462
      ],
      [
        "▁basin",
        -10.4378059858224
      ],
      [
        "▁Golden",
        -10.438549433684154
      ],
      [
        "▁basket",
        -10.438977652285454
      ],
      [
        "▁chapel",
        -10.4389924050544
      ],
      [
        "▁fellow",
        -10.43903301517027
      ],
      [
        "ll",
        -10.440342544514198
      ],
      [
        ".com",
        -10.440744853428082
      ],
      [
        "▁sample",
        -10.440995704308678
      ],
      [
        "▁leaders",
        -10.443606623434924
      ],
      [
        "▁acquire",
        -10.444059581256518
      ],
      [
        "▁govern",
        -10.446418716391765
      ],
      [
        "▁Fantas",
        -10.446460722088553
      ],
      [
        "▁impress",
        -10.446830343809971
      ],
      [
        "▁Lieutenant",
        -10.447116793798905
      ],
      [
        "▁Caribbean",
        -10.447116794826771
      ],
      [
        "▁Democrat",
        -10.447116834176438
      ],
      [
        "▁wedding",
        -10.447131386541018
      ],
      [
        "▁Han",
        -10.447226304377303
      ],
      [
        "▁Milit",
        -10.447250840646033
      ],
      [
        "▁Sunday",
        -10.447399906527895
      ],
      [
        "▁AML",
        -10.447563303912865
      ],
      [
        "▁Allah",
        -10.447684594529218
      ],
      [
        "▁judge",
        -10.448282573919787
      ],
      [
        "▁becom",
        -10.449422708580563
      ],
      [
        "▁decide",
        -10.450068773866066
      ],
      [
        "▁tend",
        -10.451644950525933
      ],
      [
        "rge",
        -10.451844668015676
      ],
      [
        "▁Prime",
        -10.45192348921966
      ],
      [
        "▁Chels",
        -10.452109277380416
      ],
      [
        "cia",
        -10.453083518352447
      ],
      [
        "▁table",
        -10.453158396658004
      ],
      [
        "▁plane",
        -10.45452416766339
      ],
      [
        "▁175",
        -10.454741771196794
      ],
      [
        "▁importan",
        -10.454976337482732
      ],
      [
        "▁regime",
        -10.455427277469393
      ],
      [
        "▁trail",
        -10.456388381430118
      ],
      [
        "▁Haiti",
        -10.45757971751317
      ],
      [
        "▁resign",
        -10.457985821990178
      ],
      [
        "▁Christ",
        -10.458221455310454
      ],
      [
        "▁sufficient",
        -10.458227904912732
      ],
      [
        "▁eleven",
        -10.458228073647948
      ],
      [
        "▁panel",
        -10.458295071946816
      ],
      [
        "▁household",
        -10.45829988693676
      ],
      [
        "▁Columbia",
        -10.458463234785743
      ],
      [
        "ruli",
        -10.45854552207691
      ],
      [
        "▁interior",
        -10.45866580031139
      ],
      [
        "▁Roger",
        -10.458673478445071
      ],
      [
        "▁estate",
        -10.45870536071783
      ],
      [
        "▁Hindu",
        -10.459163055469382
      ],
      [
        "▁successor",
        -10.459308250070643
      ],
      [
        "ett",
        -10.459357883052611
      ],
      [
        "▁supposed",
        -10.459859942416008
      ],
      [
        "▁Georgian",
        -10.460212649884067
      ],
      [
        "▁164",
        -10.46068266296648
      ],
      [
        "cal",
        -10.460851088026661
      ],
      [
        "▁emotional",
        -10.460956597460452
      ],
      [
        "▁composer",
        -10.461196657621812
      ],
      [
        "▁equal",
        -10.463052737774948
      ],
      [
        "▁6th",
        -10.46323702664863
      ],
      [
        "▁du",
        -10.463933636579451
      ],
      [
        "ius",
        -10.465460422477609
      ],
      [
        "▁distinguish",
        -10.46592115557066
      ],
      [
        "ERA",
        -10.468057536932424
      ],
      [
        "om",
        -10.468101416136903
      ],
      [
        "▁adventure",
        -10.468479748627534
      ],
      [
        "▁spoke",
        -10.468574060906768
      ],
      [
        "▁Romani",
        -10.468846867732786
      ],
      [
        "▁shooting",
        -10.468910041317189
      ],
      [
        "▁econom",
        -10.46896216030245
      ],
      [
        "▁Public",
        -10.469040480082313
      ],
      [
        "▁85",
        -10.46904400253989
      ],
      [
        "▁deploy",
        -10.469188365650997
      ],
      [
        "▁tunnel",
        -10.469469054920722
      ],
      [
        "▁Hibari",
        -10.469469079097966
      ],
      [
        "▁Gwen",
        -10.469482120971538
      ],
      [
        "▁archaeologist",
        -10.469601580690876
      ],
      [
        "▁About",
        -10.469623356152773
      ],
      [
        "▁attain",
        -10.469636761751769
      ],
      [
        "▁77",
        -10.46963977126406
      ],
      [
        "▁introduc",
        -10.469725570149674
      ],
      [
        "▁journalist",
        -10.469900567531353
      ],
      [
        "▁Venus",
        -10.471081731581748
      ],
      [
        "▁Holly",
        -10.471150608744296
      ],
      [
        "▁establishment",
        -10.471846082676223
      ],
      [
        "▁finds",
        -10.47244896751457
      ],
      [
        "▁Mont",
        -10.473570068471293
      ],
      [
        "▁medi",
        -10.473621791556445
      ],
      [
        "▁FA",
        -10.473895094202462
      ],
      [
        "▁Miss",
        -10.475041773835125
      ],
      [
        "▁address",
        -10.476503524372115
      ],
      [
        "▁bass",
        -10.47751490210668
      ],
      [
        "▁Base",
        -10.477571050084688
      ],
      [
        "▁refus",
        -10.479457284660448
      ],
      [
        "▁southeast",
        -10.479667676984054
      ],
      [
        "▁Iguanodon",
        -10.480574777600253
      ],
      [
        "▁Industr",
        -10.4807520624292
      ],
      [
        "▁component",
        -10.480827970469297
      ],
      [
        "▁Boliv",
        -10.48083513035398
      ],
      [
        "▁theatre",
        -10.480919891816427
      ],
      [
        "▁convoy",
        -10.481016165856104
      ],
      [
        "▁truth",
        -10.481163576680236
      ],
      [
        "▁correct",
        -10.481167783535682
      ],
      [
        "▁visitor",
        -10.481862742208648
      ],
      [
        "▁CD",
        -10.481996515204862
      ],
      [
        "▁250",
        -10.482402543119019
      ],
      [
        "▁lands",
        -10.483630442557878
      ],
      [
        "▁Lis",
        -10.484207928545974
      ],
      [
        "▁81",
        -10.484718169732027
      ],
      [
        "▁Y",
        -10.48476515134989
      ],
      [
        "▁59",
        -10.485352189326996
      ],
      [
        "▁repeated",
        -10.487300373708045
      ],
      [
        "▁Les",
        -10.488066324431275
      ],
      [
        "▁179",
        -10.4884406027903
      ],
      [
        "▁drop",
        -10.488670568164363
      ],
      [
        "▁kne",
        -10.491044306359822
      ],
      [
        "▁Its",
        -10.492185400754828
      ],
      [
        "▁approve",
        -10.492321754234194
      ],
      [
        "▁speech",
        -10.492321777867971
      ],
      [
        "▁offense",
        -10.492325373096017
      ],
      [
        "▁rural",
        -10.492351545924206
      ],
      [
        "▁academic",
        -10.492469835559659
      ],
      [
        "▁bough",
        -10.492602229387401
      ],
      [
        "▁Howard",
        -10.492654153551626
      ],
      [
        "▁Destin",
        -10.492662501856254
      ],
      [
        "▁exit",
        -10.49270526902064
      ],
      [
        "▁176",
        -10.49284531559746
      ],
      [
        "▁twin",
        -10.492964627610522
      ],
      [
        "▁Jones",
        -10.49319809833306
      ],
      [
        "▁dispute",
        -10.493426938290641
      ],
      [
        "wealth",
        -10.494126461377899
      ],
      [
        "▁ice",
        -10.494228673425866
      ],
      [
        "▁Perr",
        -10.495296769531944
      ],
      [
        "▁exact",
        -10.4953308948708
      ],
      [
        "pp",
        -10.496398272490996
      ],
      [
        "▁driver",
        -10.497188831719047
      ],
      [
        "quite",
        -10.498992933696368
      ],
      [
        "per",
        -10.499171932020634
      ],
      [
        "▁Per",
        -10.499312570951844
      ],
      [
        "▁Holy",
        -10.499509728250576
      ],
      [
        "▁Bull",
        -10.499793745422807
      ],
      [
        "▁dissipat",
        -10.50008447540327
      ],
      [
        "▁remix",
        -10.500140258477803
      ],
      [
        "▁dog",
        -10.500183788548805
      ],
      [
        "▁load",
        -10.500868279791609
      ],
      [
        "▁ex",
        -10.501142799797705
      ],
      [
        "pent",
        -10.502181964287743
      ],
      [
        "he",
        -10.502622464084576
      ],
      [
        "eath",
        -10.502943248082186
      ],
      [
        "▁realize",
        -10.50313542610905
      ],
      [
        "▁controvers",
        -10.503871285373478
      ],
      [
        "▁Similar",
        -10.503949658718916
      ],
      [
        "▁predator",
        -10.503950013662346
      ],
      [
        "▁plain",
        -10.503956337717772
      ],
      [
        "▁Secretary",
        -10.504368961524445
      ],
      [
        "▁rival",
        -10.505000428644804
      ],
      [
        "▁march",
        -10.505383385593806
      ],
      [
        "▁Mari",
        -10.50590720058922
      ],
      [
        "▁sports",
        -10.506571563574088
      ],
      [
        "▁designation",
        -10.506588388960637
      ],
      [
        "ji",
        -10.50672856754175
      ],
      [
        "von",
        -10.507185682397251
      ],
      [
        "▁alter",
        -10.507223119479953
      ],
      [
        "▁IG",
        -10.507425919463486
      ],
      [
        "die",
        -10.507702827456278
      ],
      [
        "▁Alexand",
        -10.508884884369412
      ],
      [
        "▁Te",
        -10.509044272206769
      ],
      [
        "▁Dublin",
        -10.510862796835923
      ],
      [
        "▁doubt",
        -10.511027049650714
      ],
      [
        "▁glass",
        -10.51200523393458
      ],
      [
        "▁rose",
        -10.513498113004498
      ],
      [
        "▁Sap",
        -10.513625811854165
      ],
      [
        "▁Office",
        -10.514610369958483
      ],
      [
        "▁10th",
        -10.514730085855664
      ],
      [
        "▁politic",
        -10.514834315175172
      ],
      [
        "▁exhibit",
        -10.51545808445481
      ],
      [
        "▁constant",
        -10.51571437427043
      ],
      [
        "▁certifie",
        -10.515714397094113
      ],
      [
        "▁variation",
        -10.51571452847247
      ],
      [
        "▁rifle",
        -10.51571573995922
      ],
      [
        "▁Stephen",
        -10.515716614709557
      ],
      [
        "▁benefit",
        -10.515717150022052
      ],
      [
        "▁pregnan",
        -10.515717563169966
      ],
      [
        "▁opposition",
        -10.515723708247737
      ],
      [
        "▁Montana",
        -10.515736231806674
      ],
      [
        "▁download",
        -10.515753771814268
      ],
      [
        "▁inspiration",
        -10.515791246375747
      ],
      [
        "▁Snow",
        -10.515810471251562
      ],
      [
        "▁Swed",
        -10.515940859087257
      ],
      [
        "▁blow",
        -10.515961719680629
      ],
      [
        "▁Native",
        -10.515993301586786
      ],
      [
        "▁bear",
        -10.51646472237394
      ],
      [
        "▁rich",
        -10.51665914993254
      ],
      [
        "▁replacement",
        -10.516804804770782
      ],
      [
        "▁declar",
        -10.517528124991216
      ],
      [
        "gett",
        -10.518076692741925
      ],
      [
        "▁replac",
        -10.518078949475587
      ],
      [
        "tory",
        -10.518992906786323
      ],
      [
        "▁Homer",
        -10.51901451927996
      ],
      [
        "▁Bana",
        -10.51929456245472
      ],
      [
        "▁la",
        -10.519751778164782
      ],
      [
        "▁chair",
        -10.520607887736293
      ],
      [
        "▁capacit",
        -10.520842177081546
      ],
      [
        "▁contest",
        -10.52272249660534
      ],
      [
        "▁urban",
        -10.523347902939443
      ],
      [
        "▁settle",
        -10.523758418690441
      ],
      [
        "▁introduction",
        -10.524523861448447
      ],
      [
        "idden",
        -10.524703806657293
      ],
      [
        "▁wor",
        -10.525006258619447
      ],
      [
        "▁Stevens",
        -10.52586372572266
      ],
      [
        "▁Gull",
        -10.526521147639277
      ],
      [
        "▁heat",
        -10.526773629482488
      ],
      [
        "are",
        -10.527079716096257
      ],
      [
        "▁Mississippi",
        -10.527619123967188
      ],
      [
        "▁recruit",
        -10.527619124007053
      ],
      [
        "▁journey",
        -10.527619142869352
      ],
      [
        "▁Activis",
        -10.52761918318319
      ],
      [
        "▁Trujill",
        -10.52761927603877
      ],
      [
        "▁sequel",
        -10.52762158575894
      ],
      [
        "▁reputation",
        -10.527622575085807
      ],
      [
        "▁Samuel",
        -10.527629631398373
      ],
      [
        "▁substantial",
        -10.527716042092383
      ],
      [
        "▁Ridge",
        -10.52821395692514
      ],
      [
        "▁exception",
        -10.528653668267648
      ],
      [
        "▁assistance",
        -10.528733455605444
      ],
      [
        "▁Critical",
        -10.528825847028603
      ],
      [
        "▁surrender",
        -10.529175593147706
      ],
      [
        "tadium",
        -10.529544093876515
      ],
      [
        "▁fictional",
        -10.529683707620077
      ],
      [
        "▁Dann",
        -10.530009360130418
      ],
      [
        "tage",
        -10.530166607645022
      ],
      [
        "▁bank",
        -10.53023843321249
      ],
      [
        "▁distinct",
        -10.530290988891492
      ],
      [
        "▁Norman",
        -10.530837026812048
      ],
      [
        "▁Croatian",
        -10.531098651606847
      ],
      [
        "▁Down",
        -10.531147558999042
      ],
      [
        "▁exchange",
        -10.531214422846219
      ],
      [
        "▁Pri",
        -10.531337806463245
      ],
      [
        "▁wood",
        -10.53235401576634
      ],
      [
        "▁Band",
        -10.533652103498534
      ],
      [
        "▁indicat",
        -10.534012891525181
      ],
      [
        "▁Friends",
        -10.534237890364574
      ],
      [
        "▁nois",
        -10.534493964316272
      ],
      [
        "▁graphic",
        -10.534703589551102
      ],
      [
        "▁defender",
        -10.535243788281873
      ],
      [
        "▁prey",
        -10.535960779329933
      ],
      [
        "▁fine",
        -10.536742751676748
      ],
      [
        "▁ensure",
        -10.536831648175125
      ],
      [
        "ology",
        -10.536963114958903
      ],
      [
        "slo",
        -10.537213579574676
      ],
      [
        "▁bomb",
        -10.537479480424043
      ],
      [
        "▁fun",
        -10.53770050212838
      ],
      [
        "▁compete",
        -10.537748937525325
      ],
      [
        "▁map",
        -10.538573867634835
      ],
      [
        "▁parliament",
        -10.539055711958532
      ],
      [
        "▁existen",
        -10.539433094604544
      ],
      [
        "▁romantic",
        -10.539667373243901
      ],
      [
        "▁honour",
        -10.53966789005934
      ],
      [
        "▁instance",
        -10.539672706049089
      ],
      [
        "▁valley",
        -10.539674781402416
      ],
      [
        "▁distribution",
        -10.539705633328401
      ],
      [
        "▁expansion",
        -10.540030731325754
      ],
      [
        "▁baby",
        -10.54106281220954
      ],
      [
        "▁symbol",
        -10.54192987461693
      ],
      [
        "▁adapt",
        -10.542712368125057
      ],
      [
        "▁neck",
        -10.54349196655554
      ],
      [
        "▁Team",
        -10.544350366070521
      ],
      [
        "▁touch",
        -10.544719071441463
      ],
      [
        "▁Par",
        -10.545016538023702
      ],
      [
        "▁11th",
        -10.545720941650726
      ],
      [
        "▁Hart",
        -10.546163435619869
      ],
      [
        "▁tomb",
        -10.547949434892594
      ],
      [
        "▁shipp",
        -10.54808378349028
      ],
      [
        "iness",
        -10.548784282041913
      ],
      [
        "▁dry",
        -10.549691849114975
      ],
      [
        "▁earth",
        -10.549776724780116
      ],
      [
        "telligence",
        -10.549898396700975
      ],
      [
        "▁complet",
        -10.550125814185048
      ],
      [
        "▁76",
        -10.550414900407725
      ],
      [
        "▁signal",
        -10.55046338940106
      ],
      [
        "gone",
        -10.550893319407123
      ],
      [
        "−",
        -10.55186243868948
      ],
      [
        "▁responsibilit",
        -10.551862438693004
      ],
      [
        "▁application",
        -10.55186291684233
      ],
      [
        "▁monarch",
        -10.551863752184678
      ],
      [
        "▁Frederick",
        -10.551885036281718
      ],
      [
        "▁alternative",
        -10.551899226453443
      ],
      [
        "▁department",
        -10.552055053430617
      ],
      [
        "▁Rose",
        -10.552185620779888
      ],
      [
        "▁Roxa",
        -10.552221924154338
      ],
      [
        "▁Harris",
        -10.552282872201115
      ],
      [
        "▁distribute",
        -10.552327762416802
      ],
      [
        "▁Isabell",
        -10.552501168082639
      ],
      [
        "▁Play",
        -10.55305081540665
      ],
      [
        "▁churche",
        -10.553281364496963
      ],
      [
        "▁Pro",
        -10.553661712472863
      ],
      [
        "ette",
        -10.553879854136362
      ],
      [
        "▁charit",
        -10.554693281080935
      ],
      [
        "▁belong",
        -10.556261650636259
      ],
      [
        "jev",
        -10.557261596713932
      ],
      [
        "▁Will",
        -10.557326346728404
      ],
      [
        "▁pitcher",
        -10.557499749154085
      ],
      [
        "▁NH",
        -10.558228002648821
      ],
      [
        "▁catch",
        -10.558497379106175
      ],
      [
        "ri",
        -10.558680363166712
      ],
      [
        "ado",
        -10.559219317209319
      ],
      [
        "iston",
        -10.559758901365054
      ],
      [
        "▁bound",
        -10.561802961909592
      ],
      [
        "▁Alan",
        -10.563434769719096
      ],
      [
        "▁trie",
        -10.563595961172911
      ],
      [
        "▁thirt",
        -10.564193386370722
      ],
      [
        "▁Stefan",
        -10.564208122876131
      ],
      [
        "▁Calvert",
        -10.564208254080121
      ],
      [
        "▁portrait",
        -10.564208256850424
      ],
      [
        "▁expert",
        -10.564209019471532
      ],
      [
        "▁favorite",
        -10.564216759617246
      ],
      [
        "▁Tower",
        -10.564236620895716
      ],
      [
        "▁railway",
        -10.56440062234121
      ],
      [
        "▁Order",
        -10.564580805834515
      ],
      [
        "▁interchange",
        -10.56459028442676
      ],
      [
        "▁battleship",
        -10.564720627241375
      ],
      [
        "▁signing",
        -10.565450040285711
      ],
      [
        "▁lose",
        -10.565691711711231
      ],
      [
        "▁afterward",
        -10.56618939383522
      ],
      [
        "▁flag",
        -10.566440005345303
      ],
      [
        "▁driv",
        -10.566655447027475
      ],
      [
        "▁authors",
        -10.566727735094716
      ],
      [
        "li",
        -10.566749445691077
      ],
      [
        "▁reading",
        -10.56749632194519
      ],
      [
        "efore",
        -10.56750645293844
      ],
      [
        "▁celebrate",
        -10.56785497365356
      ],
      [
        "▁drug",
        -10.568059766223351
      ],
      [
        "▁Arthur",
        -10.56824957132602
      ],
      [
        "▁G.",
        -10.569053231482664
      ],
      [
        "▁NBC",
        -10.569921581175425
      ],
      [
        "▁Pol",
        -10.572227868839212
      ],
      [
        "▁canal",
        -10.572403271261834
      ],
      [
        "▁historic",
        -10.572412341476925
      ],
      [
        "cited",
        -10.572558744763532
      ],
      [
        "▁proper",
        -10.57283895885455
      ],
      [
        "vi",
        -10.573771785253651
      ],
      [
        "▁cycle",
        -10.574225281067136
      ],
      [
        "▁pound",
        -10.574605330453526
      ],
      [
        "▁Bria",
        -10.574694998770886
      ],
      [
        "▁NC",
        -10.575000359325434
      ],
      [
        "▁Maria",
        -10.575901350107397
      ],
      [
        "▁roads",
        -10.575946718202264
      ],
      [
        "▁cult",
        -10.576654499230504
      ],
      [
        "▁resource",
        -10.576708121712347
      ],
      [
        "▁crown",
        -10.57670835314405
      ],
      [
        "▁bright",
        -10.576734062063439
      ],
      [
        "▁Plunkett",
        -10.576737911949554
      ],
      [
        "▁squadron",
        -10.57673884311981
      ],
      [
        "▁Hugh",
        -10.576777540027326
      ],
      [
        "▁convecti",
        -10.576907731495968
      ],
      [
        "▁surprise",
        -10.577886325953902
      ],
      [
        "▁door",
        -10.578267332345085
      ],
      [
        "▁identit",
        -10.578275506657313
      ],
      [
        "▁puzzle",
        -10.578307611064352
      ],
      [
        "▁Ra",
        -10.578388093580918
      ],
      [
        "▁moderate",
        -10.578816276970798
      ],
      [
        "D",
        -10.578977991188772
      ],
      [
        "▁Carl",
        -10.579099086533294
      ],
      [
        "tial",
        -10.5797756112967
      ],
      [
        "▁98",
        -10.580569534808848
      ],
      [
        "▁Richards",
        -10.58062502768598
      ],
      [
        "adding",
        -10.58104824782927
      ],
      [
        "▁177",
        -10.582405957932199
      ],
      [
        "▁split",
        -10.582722926276688
      ],
      [
        "▁eyes",
        -10.582730261932868
      ],
      [
        "▁Oh",
        -10.583695508665777
      ],
      [
        "ov",
        -10.583816788989441
      ],
      [
        "▁Sa",
        -10.584218315784383
      ],
      [
        "▁franchise",
        -10.58427411454189
      ],
      [
        "▁goe",
        -10.584303609417326
      ],
      [
        "hat",
        -10.584861685407517
      ],
      [
        "▁bell",
        -10.584900283506116
      ],
      [
        "▁Hu",
        -10.585311085629831
      ],
      [
        "▁denie",
        -10.586513183801483
      ],
      [
        "▁tribes",
[...]
